unsigned char converted_model_tflite[] = {
  0x24, 0x00, 0x00, 0x00, 0x54, 0x46, 0x4c, 0x33, 0x00, 0x00, 0x00, 0x00,
  0x00, 0x00, 0x00, 0x00, 0x00, 0x00, 0x12, 0x00, 0x1c, 0x00, 0x04, 0x00,
  0x08, 0x00, 0x0c, 0x00, 0x10, 0x00, 0x14, 0x00, 0x00, 0x00, 0x18, 0x00,
  0x12, 0x00, 0x00, 0x00, 0x03, 0x00, 0x00, 0x00, 0xf4, 0x18, 0x00, 0x00,
  0x18, 0x11, 0x00, 0x00, 0x00, 0x11, 0x00, 0x00, 0x3c, 0x00, 0x00, 0x00,
  0x04, 0x00, 0x00, 0x00, 0x01, 0x00, 0x00, 0x00, 0x0c, 0x00, 0x00, 0x00,
  0x08, 0x00, 0x0c, 0x00, 0x04, 0x00, 0x08, 0x00, 0x08, 0x00, 0x00, 0x00,
  0x08, 0x00, 0x00, 0x00, 0x12, 0x00, 0x00, 0x00, 0x13, 0x00, 0x00, 0x00,
  0x6d, 0x69, 0x6e, 0x5f, 0x72, 0x75, 0x6e, 0x74, 0x69, 0x6d, 0x65, 0x5f,
  0x76, 0x65, 0x72, 0x73, 0x69, 0x6f, 0x6e, 0x00, 0x13, 0x00, 0x00, 0x00,
  0xb4, 0x10, 0x00, 0x00, 0xa0, 0x10, 0x00, 0x00, 0x44, 0x10, 0x00, 0x00,
  0xf0, 0x0f, 0x00, 0x00, 0x9c, 0x0f, 0x00, 0x00, 0x68, 0x0f, 0x00, 0x00,
  0x44, 0x0f, 0x00, 0x00, 0x30, 0x0b, 0x00, 0x00, 0x1c, 0x07, 0x00, 0x00,
  0x08, 0x03, 0x00, 0x00, 0xf4, 0x00, 0x00, 0x00, 0xa0, 0x00, 0x00, 0x00,
  0x94, 0x00, 0x00, 0x00, 0x80, 0x00, 0x00, 0x00, 0x6c, 0x00, 0x00, 0x00,
  0x58, 0x00, 0x00, 0x00, 0x44, 0x00, 0x00, 0x00, 0x30, 0x00, 0x00, 0x00,
  0x04, 0x00, 0x00, 0x00, 0xfa, 0xee, 0xff, 0xff, 0x04, 0x00, 0x00, 0x00,
  0x10, 0x00, 0x00, 0x00, 0x31, 0x2e, 0x35, 0x2e, 0x30, 0x00, 0x00, 0x00,
  0x00, 0x00, 0x00, 0x00, 0x00, 0x00, 0x00, 0x00, 0x00, 0x00, 0x00, 0x00,
  0x00, 0x00, 0x00, 0x00, 0x00, 0x00, 0x00, 0x00, 0xf0, 0xe7, 0xff, 0xff,
  0x00, 0x00, 0x00, 0x00, 0x00, 0x00, 0x00, 0x00, 0x00, 0x00, 0x00, 0x00,
  0x00, 0xe8, 0xff, 0xff, 0x00, 0x00, 0x00, 0x00, 0x00, 0x00, 0x00, 0x00,
  0x00, 0x00, 0x00, 0x00, 0x10, 0xe8, 0xff, 0xff, 0x00, 0x00, 0x00, 0x00,
  0x00, 0x00, 0x00, 0x00, 0x00, 0x00, 0x00, 0x00, 0x20, 0xe8, 0xff, 0xff,
  0x00, 0x00, 0x00, 0x00, 0x00, 0x00, 0x00, 0x00, 0x00, 0x00, 0x00, 0x00,
  0x30, 0xe8, 0xff, 0xff, 0x00, 0x00, 0x00, 0x00, 0x00, 0x00, 0x00, 0x00,
  0x00, 0x00, 0x00, 0x00, 0x40, 0xe8, 0xff, 0xff, 0x00, 0x00, 0x00, 0x00,
  0x7a, 0xef, 0xff, 0xff, 0x04, 0x00, 0x00, 0x00, 0x40, 0x00, 0x00, 0x00,
  0x3e, 0x3a, 0x2f, 0xbd, 0x55, 0x1d, 0xbb, 0xbe, 0x1a, 0x4c, 0xe1, 0x3e,
  0x08, 0x7a, 0x7c, 0x3a, 0xcf, 0x19, 0x40, 0xbf, 0x9a, 0xc6, 0x1c, 0xbf,
  0x18, 0xb7, 0x42, 0xbf, 0x9a, 0x4d, 0x40, 0x3f, 0xa9, 0x94, 0x58, 0xbf,
  0x4f, 0xbc, 0x3c, 0x3e, 0x9d, 0x1c, 0x38, 0xbf, 0xb1, 0xb0, 0xd6, 0xbe,
  0x6d, 0xb2, 0x4c, 0x3e, 0xf7, 0x53, 0xd7, 0x3d, 0x70, 0xe0, 0xde, 0xbd,
  0x9a, 0x8c, 0x31, 0xbf, 0x00, 0x00, 0x00, 0x00, 0xca, 0xef, 0xff, 0xff,
  0x04, 0x00, 0x00, 0x00, 0x00, 0x02, 0x00, 0x00, 0x9e, 0xa4, 0x8f, 0xbd,
  0x41, 0xfb, 0xd8, 0xbc, 0xac, 0x6c, 0x14, 0xbd, 0x1c, 0x18, 0x17, 0x3d,
  0x2c, 0x08, 0x26, 0xbf, 0xf2, 0xd3, 0x1c, 0xbd, 0x5b, 0xfc, 0xf5, 0x3e,
  0xd3, 0xf8, 0x03, 0x3f, 0x1d, 0xf8, 0x5d, 0x3e, 0x5e, 0xfd, 0x0e, 0xbe,
  0xbf, 0x3b, 0x7a, 0x3f, 0x5b, 0xea, 0x27, 0xbf, 0xaa, 0xca, 0x01, 0xbe,
  0x18, 0x72, 0xb5, 0xbd, 0x8c, 0x58, 0xa1, 0xbd, 0x52, 0xe9, 0x68, 0x3e,
  0x47, 0xe9, 0xff, 0x3d, 0x7d, 0xa7, 0x31, 0x3f, 0xec, 0x82, 0x7d, 0x3e,
  0x27, 0xc2, 0x4a, 0x3d, 0x9b, 0x01, 0x0b, 0x3f, 0xe0, 0x84, 0x8c, 0x3d,
  0x4f, 0x85, 0xc0, 0x3e, 0x53, 0xd7, 0xd2, 0xbe, 0x4b, 0x59, 0x0f, 0x3d,
  0xff, 0x2b, 0x5a, 0x3e, 0x85, 0xb6, 0xa4, 0xbe, 0xd0, 0x22, 0x10, 0x3f,
  0x92, 0x94, 0x24, 0x3f, 0xf9, 0x5b, 0xd6, 0x3e, 0x8f, 0x27, 0xbe, 0x3d,
  0x76, 0xdd, 0x59, 0x3c, 0xd2, 0x6d, 0x22, 0x3f, 0x2d, 0xf8, 0x3f, 0x3e,
  0xe5, 0x5b, 0xb3, 0x3e, 0x6d, 0xe2, 0x1b, 0xbf, 0x1e, 0x4d, 0x03, 0xbf,
  0xa8, 0x8a, 0xb1, 0xbc, 0x1d, 0x41, 0xd1, 0x3e, 0x9f, 0x0e, 0x4b, 0x3f,
  0x4f, 0x95, 0xfe, 0xbe, 0xbf, 0x56, 0x26, 0xbe, 0xa9, 0x14, 0xa2, 0x3e,
  0x4b, 0xd0, 0xe4, 0xbe, 0x62, 0x39, 0xc4, 0xbe, 0x08, 0x80, 0x07, 0xbe,
  0x77, 0x41, 0x99, 0x3d, 0x73, 0x75, 0x90, 0xbe, 0xc5, 0x92, 0x04, 0x3f,
  0x31, 0x3a, 0xaf, 0xbe, 0xa1, 0x15, 0x0c, 0xbf, 0x99, 0xaa, 0x0e, 0xbe,
  0x5c, 0x26, 0x61, 0xbe, 0xaf, 0xdf, 0xdc, 0xbc, 0x7e, 0x63, 0x05, 0xbe,
  0xb1, 0x70, 0x16, 0x3f, 0x0b, 0x55, 0x1e, 0x3e, 0x1a, 0xf0, 0xfb, 0xbe,
  0xb0, 0xa6, 0x87, 0x3e, 0xa6, 0x50, 0x35, 0xbe, 0x15, 0x2e, 0xa6, 0x3d,
  0x1a, 0xad, 0xe4, 0x3c, 0xcd, 0x7a, 0x68, 0x3e, 0xfd, 0x8a, 0xb6, 0x3e,
  0x40, 0xcd, 0xcb, 0xbe, 0xdd, 0x26, 0x01, 0x3e, 0x4f, 0xca, 0x6d, 0xbe,
  0x85, 0x31, 0x43, 0x3e, 0xd8, 0xa6, 0xb5, 0x3d, 0xd9, 0x6d, 0x2c, 0x3f,
  0x64, 0x96, 0x38, 0x3b, 0x91, 0xf8, 0xa7, 0x3e, 0xab, 0x87, 0xce, 0x3e,
  0xd5, 0x1e, 0x88, 0xbe, 0x3e, 0x8b, 0xd9, 0xbe, 0x07, 0xac, 0xd5, 0x3e,
  0x69, 0x03, 0xd9, 0x3e, 0xb6, 0x34, 0xa3, 0x3e, 0x72, 0xaa, 0xb0, 0x3e,
  0xa8, 0x4c, 0xad, 0xbe, 0xff, 0x1d, 0x2f, 0x3c, 0xe0, 0xfc, 0xdc, 0x3e,
  0xe6, 0x82, 0x25, 0x3f, 0x99, 0x7f, 0x58, 0xbc, 0x3b, 0xf2, 0x7b, 0xbb,
  0x89, 0xde, 0x3d, 0x3f, 0x88, 0x56, 0xb2, 0x3d, 0xaf, 0x4c, 0x5d, 0xbe,
  0xa4, 0x73, 0x4c, 0x3f, 0xc9, 0x33, 0x87, 0x3e, 0x8a, 0xab, 0x83, 0xbe,
  0x7a, 0xa0, 0x3f, 0x3e, 0x97, 0xc1, 0x31, 0x3f, 0xfa, 0x61, 0x37, 0x3e,
  0xba, 0xf9, 0x3f, 0x3f, 0xa2, 0xfb, 0xb2, 0x3d, 0xd4, 0xb4, 0xee, 0xbd,
  0xef, 0xba, 0x17, 0x3e, 0xf8, 0x25, 0x40, 0x3d, 0x4d, 0xd2, 0xae, 0x3e,
  0xdd, 0xfc, 0xe5, 0x3e, 0xc4, 0x3a, 0x4f, 0xbd, 0xb0, 0x00, 0x1c, 0x3e,
  0x61, 0x0a, 0xcd, 0xbd, 0x3a, 0x0c, 0x45, 0x3d, 0x17, 0x55, 0x12, 0x3f,
  0x4f, 0xac, 0x5f, 0xbe, 0xe1, 0x94, 0x3e, 0x3f, 0x5c, 0x56, 0x25, 0xbd,
  0x6e, 0x51, 0xa0, 0xbc, 0x9d, 0x80, 0x03, 0x3f, 0x18, 0x85, 0x90, 0xbe,
  0x61, 0xe2, 0x21, 0x3f, 0x04, 0xc2, 0x24, 0xbf, 0xa1, 0xec, 0x28, 0xbd,
  0xdb, 0xa3, 0x07, 0xbf, 0x20, 0x17, 0xfe, 0xbe, 0x36, 0x35, 0x80, 0x3e,
  0x14, 0xeb, 0x02, 0x3f, 0x82, 0x35, 0xa7, 0x3e, 0x29, 0xc1, 0x8c, 0x3e,
  0x6d, 0x52, 0xa3, 0xbe, 0x15, 0x3f, 0x22, 0x3f, 0x4f, 0xbe, 0xcc, 0x3d,
  0xa8, 0xa5, 0xdc, 0xbe, 0xc1, 0x4f, 0xc5, 0xbe, 0xdf, 0x2e, 0xe5, 0xbe,
  0x8a, 0xa9, 0x92, 0xbd, 0x00, 0x00, 0x00, 0x00, 0xda, 0xf1, 0xff, 0xff,
  0x04, 0x00, 0x00, 0x00, 0x00, 0x04, 0x00, 0x00, 0xfe, 0xd3, 0x4b, 0xbe,
  0x45, 0x88, 0xe9, 0xbe, 0x97, 0x6f, 0x18, 0xbf, 0xfe, 0xb7, 0x34, 0x3e,
  0x11, 0x17, 0x23, 0x3f, 0x04, 0x40, 0x2d, 0x3e, 0xb9, 0x68, 0xd7, 0x3d,
  0xb0, 0xe8, 0xa9, 0xbe, 0xa6, 0xc5, 0x49, 0xbd, 0x19, 0x64, 0xbd, 0xbe,
  0x5f, 0x41, 0x43, 0xbd, 0x3c, 0x87, 0x2f, 0x3e, 0xa2, 0xe1, 0x02, 0xbf,
  0xca, 0x5c, 0xa6, 0xbe, 0xd6, 0xd7, 0x73, 0xbb, 0x67, 0x3e, 0x82, 0x3e,
  0x22, 0xd8, 0x8d, 0xbe, 0xce, 0xe7, 0xcd, 0x3d, 0xbb, 0x48, 0xa8, 0x3d,
  0xbe, 0x03, 0x51, 0x3e, 0xd8, 0xb0, 0x2b, 0xbe, 0x12, 0x98, 0x77, 0xbe,
  0x63, 0xcc, 0x54, 0xbe, 0x78, 0x61, 0x06, 0x3f, 0x3d, 0x7e, 0x5c, 0xbe,
  0x0e, 0x69, 0xf9, 0x3e, 0xc3, 0xff, 0x07, 0xbe, 0xf1, 0x15, 0x55, 0xbd,
  0x15, 0x15, 0x35, 0x3e, 0x8a, 0xbc, 0xb5, 0x3e, 0x53, 0x0a, 0xae, 0xbe,
  0x94, 0xe2, 0x2e, 0xbe, 0x16, 0xab, 0xab, 0xbe, 0xbf, 0xc7, 0xc7, 0x3c,
  0x10, 0x2c, 0x34, 0x3e, 0x34, 0xb3, 0x6b, 0xbe, 0x76, 0x73, 0xb4, 0xbe,
  0x1d, 0xf5, 0x79, 0xbe, 0x5e, 0x2e, 0x92, 0x3e, 0xc1, 0xa3, 0x15, 0x3e,
  0x67, 0xef, 0xf7, 0xbe, 0xa0, 0xa4, 0xc9, 0x3e, 0x33, 0x9c, 0xef, 0xbe,
  0xb8, 0x99, 0xd0, 0xbe, 0xd5, 0x7a, 0x56, 0x3e, 0x5b, 0x6d, 0x64, 0xbe,
  0xc4, 0xd1, 0x36, 0xbe, 0x8d, 0x3d, 0x31, 0x3e, 0x04, 0x63, 0xa9, 0x3e,
  0xfc, 0x1d, 0xd2, 0x3e, 0xd4, 0xa4, 0x69, 0x3c, 0x73, 0x81, 0x68, 0xbe,
  0x17, 0x12, 0xc1, 0xbe, 0xe8, 0xc6, 0x5d, 0xbe, 0xd1, 0xea, 0xfe, 0x3e,
  0x21, 0xcd, 0xf2, 0x3e, 0x7f, 0x2b, 0xad, 0x3e, 0x5e, 0x96, 0xc8, 0x3e,
  0xf7, 0x0a, 0x76, 0xbd, 0x52, 0x7b, 0x14, 0x3f, 0xa2, 0x86, 0xe5, 0x3c,
  0xbf, 0xa4, 0x8b, 0xbe, 0x48, 0xc4, 0x30, 0x3e, 0xc0, 0x9f, 0xec, 0x3e,
  0x0b, 0xea, 0x91, 0xbd, 0x0e, 0xde, 0x38, 0xbe, 0xbc, 0x5e, 0x70, 0x3e,
  0x36, 0xc5, 0x32, 0x3e, 0xaf, 0xea, 0x0d, 0xbe, 0x64, 0x3c, 0x39, 0xbe,
  0xa9, 0x63, 0x01, 0xbd, 0x96, 0x72, 0x93, 0x3e, 0x21, 0x27, 0x23, 0x3e,
  0x65, 0xb5, 0xba, 0x3e, 0xb0, 0xf4, 0x0f, 0x3e, 0x00, 0x9c, 0x9d, 0x3e,
  0x3a, 0x28, 0x86, 0x3b, 0x53, 0x17, 0xec, 0x3e, 0x47, 0xb0, 0x02, 0x3f,
  0x03, 0xe1, 0xb7, 0x3e, 0xc1, 0xca, 0xa1, 0x3e, 0xf5, 0x81, 0xd6, 0xbd,
  0xce, 0xaf, 0x09, 0x3f, 0x03, 0xc4, 0xc6, 0xbe, 0x3b, 0x9c, 0x66, 0xbe,
  0x35, 0x6a, 0x4b, 0xbd, 0x89, 0x74, 0x1a, 0x3e, 0x24, 0x4a, 0xdc, 0x3e,
  0xa9, 0x98, 0x94, 0x3d, 0x03, 0xf0, 0x47, 0xbc, 0x30, 0xff, 0x9c, 0xbe,
  0x5a, 0x14, 0xfd, 0xbd, 0x0d, 0xe3, 0x29, 0xbe, 0x2d, 0x76, 0x21, 0xbe,
  0x41, 0x3b, 0x8a, 0xbd, 0xfd, 0xa3, 0x5b, 0xbe, 0xbc, 0x31, 0x6d, 0x3e,
  0x7e, 0xad, 0x89, 0xbb, 0x92, 0x82, 0xab, 0xbe, 0x62, 0xcf, 0xd1, 0x3e,
  0x56, 0x20, 0x73, 0x3e, 0xca, 0xa7, 0x02, 0x3f, 0xcc, 0x2b, 0x97, 0xbe,
  0x08, 0x20, 0x9b, 0xbe, 0xfa, 0x04, 0x97, 0x3d, 0x5b, 0x73, 0x1a, 0xbe,
  0xa7, 0xb7, 0xb6, 0xbe, 0xb1, 0x0e, 0xcd, 0xbe, 0x8d, 0xa0, 0xaf, 0xbd,
  0x2d, 0xe7, 0x17, 0xbe, 0xb0, 0xf5, 0x62, 0x3d, 0x7c, 0x46, 0xa8, 0x3d,
  0x32, 0x0c, 0x9b, 0xbe, 0xbb, 0xeb, 0x69, 0xbe, 0x2d, 0xd1, 0x6d, 0x3e,
  0xf9, 0x19, 0x8b, 0x3e, 0x1e, 0x71, 0x10, 0x3f, 0xcd, 0x25, 0xae, 0x3d,
  0xc3, 0x06, 0x6f, 0x3d, 0x4c, 0x2c, 0x69, 0xbe, 0x90, 0x5a, 0x06, 0xbf,
  0x7a, 0x35, 0xac, 0xbe, 0xe5, 0x45, 0x6f, 0xbe, 0x60, 0xe4, 0x48, 0xbc,
  0x72, 0x62, 0x0e, 0xbe, 0x53, 0xe1, 0xe6, 0xbe, 0x79, 0x77, 0x89, 0xbd,
  0x29, 0xc7, 0x20, 0x3e, 0x49, 0xd6, 0x60, 0xbd, 0x9a, 0xfc, 0x9c, 0xbd,
  0x9b, 0x71, 0x0d, 0x3f, 0x99, 0x08, 0x0f, 0xbd, 0x3c, 0xd5, 0x5e, 0xbe,
  0x0e, 0x0d, 0x54, 0xbe, 0x83, 0x89, 0xbf, 0xbe, 0x5c, 0xfd, 0x95, 0x3e,
  0x6e, 0xf0, 0x87, 0x3e, 0xd5, 0x9f, 0xfd, 0xbc, 0x16, 0xea, 0xa8, 0xbe,
  0x78, 0xcf, 0x2a, 0x3e, 0xe6, 0x64, 0x1a, 0x3d, 0x9a, 0x77, 0xcc, 0x3e,
  0x5c, 0xc3, 0x8a, 0x3c, 0xa9, 0x5d, 0x89, 0xbe, 0xcc, 0x7f, 0xd3, 0x3e,
  0xa9, 0x96, 0x4b, 0x3e, 0xf5, 0x3e, 0x29, 0xbe, 0x7b, 0x7d, 0x9c, 0xbc,
  0x25, 0x2b, 0x23, 0xbe, 0x80, 0xe6, 0x67, 0xbe, 0x46, 0x0f, 0xf5, 0x3e,
  0x3f, 0xf6, 0x01, 0xbd, 0xb9, 0x67, 0x5d, 0xbe, 0x05, 0x84, 0x0c, 0x3e,
  0xae, 0x4b, 0x85, 0xbe, 0x10, 0xc7, 0x94, 0x3e, 0x41, 0x57, 0xbd, 0x3d,
  0xfe, 0x2d, 0x44, 0x3e, 0xe4, 0xfe, 0x2c, 0xbe, 0xa7, 0x93, 0xdb, 0xbd,
  0xda, 0xf8, 0x12, 0x3d, 0x0f, 0xc1, 0xbf, 0xbe, 0x6d, 0x62, 0xc6, 0xbe,
  0x95, 0xeb, 0x43, 0xbd, 0x16, 0x98, 0x20, 0x3f, 0x42, 0xb0, 0x71, 0x3e,
  0xcd, 0x68, 0x08, 0xbe, 0x86, 0xde, 0x98, 0xbe, 0x93, 0xe2, 0x59, 0xbe,
  0x38, 0x6c, 0x3b, 0xbd, 0xd7, 0x1d, 0x8e, 0xbb, 0x5f, 0xd3, 0xeb, 0xbe,
  0x57, 0x43, 0xc1, 0xbe, 0x9c, 0x16, 0xba, 0xbd, 0x7a, 0x8e, 0xf2, 0xbb,
  0x72, 0xd1, 0x1e, 0xbe, 0x43, 0x25, 0xaf, 0x3d, 0x99, 0xf8, 0x58, 0xbd,
  0x75, 0xfc, 0xbf, 0x3e, 0x29, 0x56, 0xc0, 0xbe, 0x5e, 0xe9, 0x98, 0x3d,
  0x9c, 0xaf, 0x93, 0xbd, 0x80, 0xdb, 0xa0, 0x3e, 0x30, 0x65, 0xfd, 0x3e,
  0x59, 0xdf, 0xab, 0x3e, 0x98, 0x03, 0xec, 0x3c, 0x5b, 0x3c, 0xb7, 0xbc,
  0x7c, 0x26, 0x0b, 0x3e, 0xab, 0x9c, 0x5b, 0x3d, 0x8d, 0xa4, 0x6c, 0x3e,
  0xc3, 0x0a, 0xd5, 0xbd, 0x54, 0x2b, 0x3d, 0xbe, 0x17, 0x68, 0xd3, 0x3e,
  0xa5, 0xd6, 0xad, 0xbe, 0x10, 0x8b, 0xec, 0x3e, 0xaa, 0x59, 0x29, 0x3e,
  0x07, 0x6c, 0x92, 0xbe, 0xd5, 0xfd, 0xfc, 0x3b, 0x3d, 0x43, 0x85, 0xbe,
  0x20, 0x99, 0x6f, 0xbe, 0xec, 0x81, 0x57, 0xbe, 0x2b, 0x3c, 0x4d, 0x3e,
  0xc0, 0xd1, 0xd7, 0x3e, 0x70, 0x5a, 0xbe, 0xbd, 0x3b, 0x6f, 0xf8, 0x3e,
  0x7a, 0x51, 0x0e, 0x3f, 0x9f, 0xd9, 0xff, 0x3d, 0xe8, 0xd7, 0xac, 0x3e,
  0x3b, 0x90, 0x88, 0xbe, 0x21, 0x81, 0x3b, 0x3d, 0x7d, 0x94, 0x9e, 0x3e,
  0x59, 0x2a, 0x42, 0x3e, 0x85, 0x87, 0x77, 0xbe, 0x63, 0x65, 0x7a, 0xbe,
  0x13, 0x16, 0xe7, 0x3e, 0x6a, 0x7f, 0x05, 0x3f, 0xeb, 0xb6, 0x07, 0x3f,
  0xcb, 0x5f, 0x32, 0xbd, 0x8d, 0x0b, 0x04, 0x3f, 0x51, 0xab, 0x74, 0x3d,
  0xde, 0x08, 0x0e, 0x3e, 0x7a, 0x27, 0x27, 0xbb, 0xea, 0xe8, 0xfa, 0x3e,
  0x27, 0x5b, 0x83, 0x3e, 0xe4, 0x6d, 0x9d, 0x3d, 0xd0, 0x01, 0xaa, 0xbe,
  0x63, 0x8d, 0xf2, 0x3e, 0x23, 0xa4, 0x8b, 0xbe, 0x00, 0x7e, 0x27, 0xbe,
  0x89, 0xf1, 0xb1, 0xbd, 0xa1, 0xfe, 0xdf, 0x3e, 0x2f, 0x4d, 0x47, 0x3e,
  0x61, 0x60, 0x95, 0xbe, 0x7c, 0x84, 0x22, 0x3e, 0xb8, 0x30, 0xb8, 0xbe,
  0x29, 0x48, 0x0c, 0xbe, 0xde, 0x41, 0xaa, 0x3e, 0xa0, 0x65, 0x99, 0xbd,
  0xec, 0x33, 0x5d, 0x3e, 0xc8, 0xf6, 0x7b, 0x3c, 0xad, 0x60, 0xea, 0xbe,
  0x79, 0x19, 0x97, 0x3e, 0x8b, 0x00, 0xa1, 0xbd, 0x7d, 0x4d, 0x7c, 0xbe,
  0x7e, 0xfa, 0x0e, 0xbe, 0xd5, 0xb3, 0x7f, 0xbe, 0xdc, 0x05, 0x92, 0x3d,
  0x09, 0x83, 0x54, 0xbe, 0xd1, 0x00, 0x86, 0x3d, 0xd0, 0xfd, 0x3a, 0xbd,
  0x1e, 0xab, 0xb5, 0xbe, 0x89, 0x45, 0xd6, 0xbe, 0x12, 0x97, 0xdd, 0xbe,
  0xef, 0x3d, 0x0d, 0x3d, 0x79, 0x96, 0xeb, 0xbe, 0x7a, 0x75, 0x1b, 0xbe,
  0x00, 0x00, 0x00, 0x00, 0xea, 0xf5, 0xff, 0xff, 0x04, 0x00, 0x00, 0x00,
  0x00, 0x04, 0x00, 0x00, 0x96, 0x93, 0x4c, 0xbd, 0xe9, 0xe7, 0xbc, 0xbe,
  0x64, 0x27, 0x66, 0xbe, 0x39, 0x00, 0x4c, 0x3e, 0x3e, 0x54, 0xfd, 0xbd,
  0x51, 0x70, 0xa3, 0xbe, 0x60, 0x29, 0x36, 0x3e, 0xbd, 0x6a, 0xd9, 0xbe,
  0xe5, 0x38, 0xe6, 0x3e, 0x31, 0x56, 0x4d, 0xbe, 0x1e, 0x41, 0x86, 0x3e,
  0x2d, 0x27, 0x1f, 0x3e, 0x02, 0xac, 0x0d, 0x3f, 0xf0, 0xee, 0x19, 0x3e,
  0x02, 0xfb, 0x95, 0xbd, 0xb1, 0x2b, 0x62, 0x3e, 0xff, 0x0e, 0xc0, 0x3e,
  0xac, 0x4b, 0xc2, 0xbe, 0x09, 0xc9, 0x6f, 0xbe, 0x42, 0x86, 0x49, 0xbd,
  0x8a, 0x2b, 0x9b, 0xbe, 0xbc, 0xe0, 0x44, 0xbd, 0x8f, 0xc4, 0x99, 0xbe,
  0x79, 0xcb, 0x9e, 0xbe, 0xd8, 0x8a, 0x10, 0x3e, 0xe6, 0xd3, 0x54, 0xbe,
  0x51, 0xce, 0x93, 0x3e, 0x55, 0xa7, 0xb1, 0xbd, 0x05, 0xc1, 0xa3, 0xbe,
  0x9e, 0x8c, 0x91, 0xbe, 0xbf, 0x4c, 0x82, 0x3d, 0xbd, 0xc5, 0xc4, 0x3e,
  0xec, 0xdb, 0x8c, 0x3e, 0x87, 0x6e, 0x5a, 0x3d, 0x18, 0x2b, 0x95, 0x3e,
  0x67, 0x56, 0xc0, 0x3e, 0x98, 0xf5, 0xad, 0xbe, 0xb0, 0x3f, 0x23, 0xbd,
  0xd3, 0x17, 0xda, 0x3e, 0xce, 0xf3, 0x7f, 0xbe, 0xd2, 0xc2, 0x11, 0xbf,
  0x7a, 0x33, 0x3c, 0x3e, 0x76, 0xb9, 0x5f, 0xbd, 0x40, 0xcc, 0x02, 0x3e,
  0x9c, 0x2a, 0xa8, 0xbe, 0x00, 0x74, 0x77, 0xbe, 0x3b, 0xbf, 0x8b, 0xbe,
  0xc5, 0x41, 0x0a, 0x3e, 0x4e, 0x13, 0xd8, 0xbd, 0x28, 0x00, 0x4c, 0xbe,
  0xcd, 0x40, 0x82, 0x3e, 0xd9, 0xca, 0xc2, 0xbe, 0x84, 0x2e, 0xb5, 0xbd,
  0x19, 0xca, 0x00, 0xbe, 0x4e, 0xe9, 0xde, 0xbd, 0xd8, 0x12, 0x50, 0xbe,
  0x44, 0xf9, 0xa5, 0xbe, 0xc6, 0x4f, 0x04, 0xbf, 0xf2, 0x4f, 0x35, 0xbd,
  0xc6, 0x32, 0xe3, 0x3e, 0xf7, 0x1d, 0x32, 0x3c, 0x70, 0xf5, 0x5e, 0xbe,
  0xd7, 0x33, 0x42, 0x3d, 0xe7, 0x77, 0xda, 0x3d, 0xad, 0x6b, 0x37, 0xbe,
  0x74, 0x64, 0xc3, 0xbc, 0xf3, 0x09, 0x8a, 0xbe, 0x3c, 0x26, 0x07, 0xbf,
  0x3a, 0xcb, 0x3c, 0xbe, 0xc4, 0xfe, 0x9e, 0x3e, 0x81, 0x0f, 0x00, 0x3e,
  0x18, 0x80, 0x83, 0xbe, 0x27, 0x8d, 0x25, 0xbe, 0x39, 0x22, 0x39, 0x3e,
  0x88, 0xfb, 0xc7, 0xbe, 0x6d, 0x42, 0x2a, 0x3e, 0x71, 0xce, 0x33, 0xbe,
  0x4a, 0x54, 0xf0, 0xbe, 0x8d, 0x29, 0x83, 0xbe, 0xa3, 0xe5, 0x28, 0xbe,
  0x73, 0xfe, 0x82, 0xbe, 0xe2, 0x97, 0x48, 0x3d, 0x1e, 0x95, 0x6c, 0x3e,
  0xb6, 0x6e, 0xe8, 0xbe, 0x85, 0x57, 0x89, 0x3d, 0x66, 0x01, 0xa1, 0xbd,
  0x69, 0x2f, 0xa2, 0xbe, 0xff, 0xd0, 0x65, 0xbe, 0xce, 0xb4, 0x57, 0xbe,
  0xcd, 0x12, 0x01, 0xbf, 0x5a, 0xdc, 0x9b, 0xbe, 0x4e, 0xa4, 0x9c, 0x3e,
  0x8a, 0x90, 0x91, 0xbd, 0x83, 0x67, 0x61, 0x3d, 0x67, 0x99, 0x18, 0xbf,
  0x21, 0x3b, 0x38, 0x3e, 0x43, 0x60, 0x70, 0x3c, 0x4c, 0x22, 0x9f, 0x3e,
  0x82, 0x96, 0xd0, 0x3c, 0x16, 0xb0, 0xa9, 0x3e, 0xd8, 0x7f, 0x92, 0x3e,
  0x1b, 0x17, 0x9b, 0x3e, 0x54, 0x2f, 0x85, 0x3e, 0x9a, 0x61, 0x6b, 0x3e,
  0xf7, 0xee, 0x7b, 0x3c, 0x23, 0x6b, 0xa0, 0x3c, 0xd8, 0xe4, 0x51, 0x3d,
  0xe0, 0x7d, 0x5e, 0xbb, 0xb6, 0x12, 0xff, 0x3e, 0xbe, 0x96, 0xae, 0x3e,
  0x7a, 0xe0, 0x39, 0xbc, 0x33, 0x56, 0xf2, 0xbd, 0x60, 0x5f, 0x8c, 0x3e,
  0xf9, 0x8d, 0x5c, 0xbe, 0x4b, 0xf4, 0x9b, 0x3e, 0x71, 0xf7, 0xb1, 0xbe,
  0x5d, 0x2c, 0xca, 0xbd, 0xae, 0xef, 0x10, 0xbe, 0x09, 0x33, 0xc2, 0x3e,
  0xa4, 0x69, 0xac, 0xbe, 0x17, 0xed, 0x87, 0xbd, 0x7a, 0x03, 0x9f, 0xbc,
  0xf5, 0x29, 0xc3, 0x3b, 0x45, 0xc9, 0xc1, 0x3d, 0xa6, 0x51, 0xc8, 0x3e,
  0x70, 0x8f, 0x03, 0x3e, 0xbb, 0xa7, 0xeb, 0x3e, 0x38, 0x53, 0x88, 0x3d,
  0xd2, 0x5b, 0x97, 0x3e, 0xe9, 0xbc, 0xee, 0x3e, 0x88, 0xda, 0xcf, 0xbe,
  0x17, 0xe6, 0xb2, 0x3e, 0x9b, 0x3f, 0x79, 0x3e, 0xe6, 0x28, 0x33, 0xbe,
  0x46, 0xb2, 0x0e, 0x3e, 0x05, 0x48, 0x7a, 0xbd, 0x6e, 0x1c, 0x9b, 0x3e,
  0x77, 0xea, 0x5b, 0xba, 0x27, 0xec, 0x9e, 0x3e, 0xbf, 0xab, 0x43, 0x3d,
  0x23, 0x20, 0xf2, 0xbe, 0x22, 0xb0, 0x95, 0xbd, 0x08, 0x9c, 0x07, 0x3e,
  0x07, 0x25, 0x76, 0x3e, 0xb2, 0x91, 0xa7, 0x3d, 0x2c, 0x0a, 0x28, 0xbe,
  0x4e, 0x97, 0x78, 0xbe, 0xcf, 0xbe, 0xc9, 0x3e, 0x1b, 0x7f, 0x18, 0xbf,
  0x0c, 0x4e, 0x10, 0xbe, 0xd7, 0x99, 0xf6, 0x3d, 0xbe, 0xfc, 0x42, 0xbe,
  0xf7, 0xc0, 0xed, 0x3c, 0xd4, 0xdb, 0x95, 0x3e, 0x17, 0xf4, 0xd3, 0x3e,
  0x1b, 0x0a, 0xcb, 0xbe, 0xcf, 0x4d, 0x84, 0xbe, 0xeb, 0xc1, 0x4c, 0xbd,
  0xae, 0xc3, 0xf8, 0x3e, 0xc0, 0x52, 0xc6, 0x3e, 0x80, 0xce, 0x00, 0x3e,
  0x93, 0xe6, 0xd0, 0x3e, 0x71, 0x9a, 0x0e, 0xbe, 0x8a, 0xdc, 0xca, 0x3c,
  0x79, 0x91, 0xd0, 0xbd, 0x07, 0xc5, 0xe5, 0xbd, 0xbf, 0x4e, 0x8b, 0xbe,
  0x3f, 0xdf, 0x0e, 0x3f, 0x80, 0xb0, 0xc4, 0xbe, 0x87, 0x00, 0x07, 0x3f,
  0x84, 0x14, 0x5a, 0x3e, 0x02, 0x91, 0x3a, 0x3e, 0x95, 0xd5, 0x95, 0x3c,
  0x5b, 0xe8, 0xf8, 0xbc, 0xe4, 0xe1, 0x07, 0x3f, 0x93, 0xcb, 0xc2, 0x3e,
  0x6e, 0x57, 0xa0, 0x3e, 0x40, 0x02, 0x59, 0x3d, 0x4e, 0xa1, 0x15, 0xbe,
  0x2e, 0x59, 0x25, 0x3e, 0xaa, 0x39, 0x2f, 0x3d, 0x99, 0xdf, 0xb5, 0xbe,
  0xfc, 0x76, 0x45, 0xbc, 0xbd, 0xa2, 0x09, 0x3f, 0x46, 0x54, 0x7d, 0xbe,
  0x1c, 0x46, 0xa6, 0x3e, 0x58, 0x9c, 0xba, 0xbc, 0x08, 0xe7, 0xcd, 0xbe,
  0x8b, 0x77, 0xb3, 0xbd, 0x92, 0xeb, 0x8e, 0xbd, 0x22, 0x04, 0xd8, 0x3e,
  0xc4, 0xff, 0x83, 0xbd, 0x89, 0x3c, 0x3f, 0xbe, 0xf5, 0x44, 0xed, 0x3e,
  0xc7, 0x0a, 0xad, 0xbe, 0x76, 0xd1, 0xc1, 0x3e, 0x8a, 0xd9, 0xcf, 0x3e,
  0x95, 0x0a, 0xf6, 0x3b, 0xad, 0x3e, 0x27, 0x3e, 0x1f, 0x42, 0xa6, 0xbe,
  0xe0, 0x95, 0x9a, 0x3e, 0x58, 0x88, 0x69, 0x3e, 0x7f, 0xce, 0x2e, 0xbe,
  0x2c, 0x13, 0xa3, 0xbc, 0x0a, 0xea, 0x5a, 0x3d, 0xbc, 0xdf, 0x2b, 0x3e,
  0x26, 0x70, 0xbb, 0xbe, 0x82, 0x7b, 0x9d, 0xbe, 0x21, 0x90, 0xb4, 0x3e,
  0xb6, 0x67, 0x88, 0x3e, 0x84, 0x02, 0x26, 0x3e, 0x35, 0xf2, 0xd7, 0x3e,
  0x3a, 0x9e, 0x8b, 0x3e, 0x04, 0xc1, 0x6f, 0xbe, 0xc1, 0x2d, 0xbb, 0x3e,
  0x61, 0x05, 0xf3, 0x3e, 0xa3, 0x69, 0x2b, 0xbe, 0x67, 0xe3, 0x84, 0x3d,
  0x52, 0x53, 0xe6, 0x3c, 0xea, 0x6a, 0x5c, 0xbe, 0x50, 0x4b, 0x67, 0x3e,
  0x55, 0xac, 0x00, 0x3f, 0x68, 0x28, 0x0b, 0xbe, 0xb0, 0xd0, 0xb3, 0xbe,
  0x12, 0x2a, 0xc9, 0x3d, 0x3a, 0x08, 0xc5, 0x3d, 0x89, 0x89, 0x39, 0xbe,
  0x07, 0x4c, 0xd4, 0x3e, 0x44, 0x8a, 0xd5, 0xbd, 0x65, 0x79, 0x3a, 0xbe,
  0x3e, 0x86, 0x86, 0x3e, 0x01, 0x78, 0x01, 0x3d, 0x20, 0x21, 0xe7, 0x3d,
  0x0e, 0x2d, 0x1f, 0x3e, 0x33, 0x0e, 0x9c, 0x3e, 0x91, 0xd2, 0x05, 0x3e,
  0x8b, 0x77, 0xdb, 0x3e, 0xe7, 0x56, 0xa1, 0x3e, 0x33, 0x00, 0x97, 0x3e,
  0x13, 0xa4, 0x8a, 0xbd, 0xc2, 0xfc, 0x82, 0xbe, 0x4a, 0x3b, 0xcd, 0xbc,
  0x18, 0xf1, 0x02, 0x3e, 0x43, 0x8f, 0x68, 0x3e, 0x2e, 0xa8, 0xfb, 0x3d,
  0x8f, 0x38, 0x37, 0xbe, 0x9e, 0x96, 0x2e, 0xbe, 0xc4, 0xa8, 0xc7, 0xbd,
  0xf1, 0x34, 0xcf, 0x3a, 0x5c, 0x62, 0x2a, 0xbd, 0x81, 0xe8, 0xf9, 0xbe,
  0x8a, 0x58, 0x94, 0xbe, 0xdb, 0x51, 0x8b, 0xbe, 0x6e, 0x18, 0x96, 0xbe,
  0x4d, 0x44, 0xcd, 0x3e, 0x62, 0xf7, 0xb5, 0xbd, 0x00, 0x00, 0x00, 0x00,
  0xfa, 0xf9, 0xff, 0xff, 0x04, 0x00, 0x00, 0x00, 0x00, 0x04, 0x00, 0x00,
  0xcb, 0x84, 0xb5, 0x3e, 0xa3, 0xa6, 0x92, 0xbe, 0x6e, 0x53, 0xbf, 0x3d,
  0xfb, 0x5b, 0x7c, 0x3e, 0x23, 0x34, 0xe6, 0x3c, 0x83, 0xea, 0x95, 0xbd,
  0xd8, 0xb9, 0xa0, 0xbe, 0x46, 0x90, 0xa1, 0xbe, 0xed, 0xa5, 0xc3, 0x3d,
  0x4d, 0xbc, 0xf0, 0x3e, 0xc7, 0xad, 0x79, 0x3d, 0x13, 0x02, 0x39, 0x3d,
  0xb5, 0xe8, 0x41, 0xbe, 0x97, 0x71, 0x96, 0xbe, 0x74, 0x8a, 0xd5, 0x3e,
  0x1b, 0xea, 0x75, 0xbd, 0x88, 0x7a, 0xdc, 0x3d, 0xbe, 0x9e, 0xd4, 0xbc,
  0x8a, 0xd7, 0x94, 0xbe, 0xcf, 0x31, 0x6f, 0x3e, 0x6a, 0x2e, 0xc0, 0x3e,
  0xd0, 0x64, 0x86, 0x3e, 0xe4, 0xbc, 0xcb, 0xbe, 0x6f, 0x49, 0x30, 0xbe,
  0xd3, 0x43, 0x05, 0x3f, 0xb5, 0x01, 0x09, 0xbb, 0x27, 0x44, 0xbf, 0xbe,
  0x14, 0x9f, 0x85, 0x3d, 0x03, 0x88, 0x33, 0xbc, 0x80, 0x00, 0xa9, 0x3e,
  0xa8, 0x01, 0xcd, 0x3e, 0xcf, 0x9f, 0xbe, 0xbe, 0x9d, 0x21, 0xcc, 0xbc,
  0xe3, 0xfe, 0x8a, 0x3d, 0xad, 0x3a, 0x91, 0xbe, 0x4c, 0x63, 0xdc, 0x3e,
  0xae, 0x59, 0x85, 0x3e, 0xb1, 0xcc, 0x14, 0x3e, 0x67, 0xd3, 0x5d, 0x3d,
  0x9e, 0xb0, 0x56, 0x3e, 0x02, 0x40, 0xb8, 0x3d, 0x1b, 0x91, 0xa5, 0xbe,
  0x31, 0x22, 0x28, 0x3d, 0xa3, 0xf8, 0xc2, 0xbe, 0x0c, 0xec, 0x8e, 0x3d,
  0x10, 0x3e, 0xcd, 0xbe, 0xd2, 0x8e, 0x79, 0x3e, 0xf5, 0xa4, 0x90, 0x3e,
  0x8a, 0x54, 0x7f, 0x3e, 0x3c, 0x6d, 0xa6, 0xbe, 0xd6, 0xe3, 0x11, 0xbe,
  0xa2, 0x23, 0xee, 0x3e, 0xed, 0xf5, 0xd6, 0xbe, 0xb8, 0x70, 0x34, 0x3e,
  0x76, 0x76, 0xa4, 0x3e, 0xb5, 0xb8, 0xbd, 0xbe, 0x6f, 0xa5, 0x5c, 0x3e,
  0xf8, 0x17, 0x1e, 0xbe, 0x30, 0xf7, 0x5f, 0xbe, 0x14, 0xb7, 0xac, 0x3e,
  0xea, 0x1e, 0x9e, 0x3e, 0x14, 0x09, 0xf7, 0xbe, 0x0e, 0xc1, 0x3a, 0x3e,
  0xf3, 0xca, 0x1f, 0xbd, 0xa8, 0x4a, 0x13, 0xbe, 0xb5, 0x46, 0x83, 0xbd,
  0xb9, 0x91, 0xe0, 0x3e, 0x47, 0x6f, 0x86, 0x3e, 0x68, 0xa6, 0xda, 0xbe,
  0xad, 0x47, 0xa2, 0xbe, 0xc2, 0xb0, 0x4a, 0x3b, 0xd1, 0xf3, 0x70, 0xbc,
  0xc3, 0xab, 0xbd, 0x3c, 0x98, 0xba, 0x2a, 0x3e, 0xb5, 0xaf, 0x32, 0x3e,
  0xb2, 0x05, 0x9a, 0x3e, 0x91, 0x4c, 0x23, 0xbf, 0x5b, 0x43, 0x36, 0xbd,
  0xe5, 0x1b, 0x8a, 0x3d, 0xb9, 0xda, 0x9d, 0x3e, 0x18, 0xe9, 0x51, 0x3e,
  0x58, 0x07, 0xde, 0xbd, 0x2a, 0x89, 0xb2, 0xbd, 0xa2, 0xcc, 0x91, 0x3d,
  0x1a, 0xcb, 0x8d, 0xbe, 0x23, 0x19, 0xbe, 0xbe, 0xeb, 0x39, 0x12, 0xbd,
  0x9b, 0xa7, 0x3a, 0xbe, 0xc1, 0xf2, 0x85, 0xbe, 0x0a, 0x44, 0x69, 0xbd,
  0xf5, 0x8f, 0x83, 0x3e, 0x3d, 0x36, 0x11, 0x3e, 0x7a, 0xc6, 0x72, 0x3e,
  0xc3, 0xe0, 0x81, 0xbd, 0x67, 0x30, 0x06, 0x3e, 0x60, 0xe0, 0x3a, 0xbe,
  0xa5, 0x34, 0x32, 0x3e, 0x4b, 0x24, 0x38, 0xbe, 0x48, 0x66, 0x68, 0x3d,
  0xc7, 0xab, 0x31, 0x3e, 0x83, 0xcd, 0xdd, 0xbe, 0x7a, 0x16, 0xe0, 0xbd,
  0xc6, 0x21, 0x1c, 0x3d, 0x61, 0x4a, 0xe6, 0x3e, 0x51, 0x69, 0x18, 0x3e,
  0x61, 0x8e, 0x7c, 0xbe, 0x89, 0x94, 0x04, 0xbf, 0x9a, 0xdc, 0x6b, 0x3e,
  0xd8, 0x20, 0x9a, 0x3e, 0xd7, 0xab, 0x97, 0x3e, 0xba, 0xbf, 0x3c, 0xbe,
  0xce, 0x96, 0xbf, 0xbd, 0x94, 0x9c, 0xf0, 0xbe, 0xb2, 0x45, 0x36, 0xbe,
  0x79, 0x41, 0xc0, 0x3e, 0x31, 0xd1, 0xbe, 0x3e, 0x3b, 0x1b, 0x81, 0xbe,
  0x78, 0x8f, 0x0a, 0xbf, 0x12, 0x8c, 0xa4, 0x3d, 0xbb, 0x76, 0xd7, 0x3e,
  0x71, 0x31, 0x97, 0xbe, 0xcc, 0xdf, 0x87, 0x3d, 0xfb, 0xe0, 0xd8, 0x3a,
  0x0f, 0xda, 0x00, 0x3d, 0x50, 0xe0, 0xaf, 0x3e, 0xd9, 0xc3, 0x9c, 0x3e,
  0x34, 0xe4, 0x32, 0xbe, 0x3f, 0xcd, 0x8b, 0xbe, 0x48, 0xa1, 0x04, 0x3d,
  0x21, 0x6b, 0x8d, 0xbe, 0xf7, 0xb9, 0x9f, 0x3e, 0x61, 0x00, 0x02, 0xbe,
  0xfe, 0xff, 0x75, 0xbe, 0xa7, 0xaa, 0x8e, 0x3e, 0x49, 0x82, 0x8e, 0x3e,
  0x6b, 0x61, 0xf9, 0x3e, 0x54, 0x02, 0x4b, 0xbc, 0x8d, 0x3a, 0x83, 0xbe,
  0x4e, 0x80, 0x3b, 0xbe, 0x4a, 0xd5, 0x6b, 0xbe, 0xf8, 0x90, 0x96, 0xbe,
  0x11, 0x1b, 0x15, 0x3e, 0xe5, 0x46, 0xca, 0x3e, 0x9c, 0x47, 0x54, 0x3e,
  0xd2, 0xe5, 0xf1, 0xbc, 0x5d, 0xc0, 0x8e, 0xbe, 0x97, 0xe3, 0x85, 0x3e,
  0xab, 0x94, 0xaf, 0x3d, 0xab, 0xba, 0x84, 0x3e, 0xd2, 0x9d, 0x8a, 0xbc,
  0x79, 0x4e, 0xe9, 0xbe, 0xda, 0x1e, 0x80, 0xbd, 0xb2, 0x9e, 0x9e, 0x3e,
  0x7f, 0x6e, 0xfe, 0x3d, 0xca, 0x54, 0x31, 0x3e, 0xe1, 0xb2, 0xe5, 0xbd,
  0x98, 0xbd, 0x85, 0xbe, 0xe4, 0x1a, 0x04, 0xbd, 0xcd, 0x42, 0x1f, 0x3e,
  0x5e, 0x7e, 0xb5, 0x3e, 0x8b, 0x70, 0xc5, 0x3e, 0x73, 0xf7, 0x6f, 0xbe,
  0x1e, 0xda, 0x15, 0xbd, 0x01, 0x29, 0x2d, 0xbf, 0x39, 0x6e, 0x92, 0x3e,
  0x46, 0x65, 0xd5, 0x3e, 0x6b, 0x9f, 0xc4, 0x3d, 0x4c, 0xa3, 0xe4, 0x3d,
  0x20, 0x81, 0x0b, 0xbf, 0x1c, 0x46, 0xc9, 0x3e, 0x7b, 0x28, 0xb7, 0xbd,
  0x98, 0x85, 0x8f, 0xbe, 0x71, 0xfe, 0xc1, 0x3e, 0x5e, 0x7f, 0x13, 0x3d,
  0x9c, 0xb8, 0x99, 0xbe, 0x80, 0x01, 0x94, 0x3e, 0x71, 0xdd, 0xa3, 0xbe,
  0xa4, 0x23, 0x5a, 0x3e, 0xf8, 0xba, 0x38, 0xbe, 0x27, 0xc1, 0xac, 0xbd,
  0xe3, 0x34, 0x89, 0xbe, 0x0f, 0x48, 0xe8, 0x3d, 0xd1, 0x79, 0x8f, 0xbe,
  0x47, 0x40, 0x5f, 0xbe, 0x00, 0x91, 0xbd, 0xbb, 0x83, 0xb2, 0xc8, 0xbe,
  0xff, 0xf7, 0xdc, 0xbd, 0x93, 0xd7, 0x76, 0xbe, 0x63, 0xf2, 0x82, 0x3e,
  0x5f, 0xe4, 0xd5, 0xbe, 0xdb, 0xd9, 0x8e, 0x3e, 0xed, 0xcd, 0x98, 0xbd,
  0xb8, 0x81, 0x89, 0xbd, 0xd5, 0x33, 0xc5, 0x3d, 0xd4, 0xb7, 0xe7, 0x3c,
  0x67, 0x3b, 0xa6, 0x3d, 0x54, 0xf1, 0x99, 0x3d, 0xf9, 0x6f, 0x87, 0x3d,
  0xf3, 0xc6, 0xa2, 0x3e, 0x48, 0x4f, 0xde, 0xbe, 0x5f, 0x8f, 0x0e, 0xbf,
  0xda, 0xc5, 0x9e, 0x3e, 0x9e, 0xe7, 0x0a, 0x3f, 0xd5, 0xc3, 0xb0, 0xbe,
  0xf4, 0x15, 0x36, 0x3e, 0x58, 0xe3, 0x29, 0x3e, 0xb6, 0xb3, 0x13, 0xbe,
  0xd6, 0x6b, 0x1c, 0xbb, 0x8e, 0x21, 0x8c, 0x3e, 0x0b, 0xad, 0xd5, 0x3b,
  0x3f, 0xe8, 0xf9, 0x3e, 0x30, 0xdd, 0xe6, 0xbe, 0xa0, 0xb5, 0x0d, 0xbf,
  0xc7, 0xd9, 0xd5, 0x3e, 0x06, 0x31, 0x3a, 0xbe, 0xf3, 0x3c, 0x95, 0xbc,
  0x5d, 0x8f, 0x32, 0x3e, 0x56, 0x97, 0x8b, 0x3e, 0xaa, 0xd2, 0x88, 0xbe,
  0xf1, 0xd4, 0xcc, 0xbe, 0xee, 0xe7, 0xbb, 0x3e, 0x70, 0x16, 0x8e, 0x3c,
  0x55, 0xda, 0x91, 0xbd, 0x15, 0x79, 0x37, 0xbd, 0xaf, 0xb9, 0x1c, 0xbe,
  0xbe, 0xeb, 0xa4, 0x3e, 0x14, 0x1d, 0x61, 0xbd, 0x23, 0x57, 0xe1, 0xbe,
  0x76, 0xba, 0xd2, 0x3e, 0x30, 0x66, 0x82, 0xbe, 0x88, 0x97, 0x71, 0xbd,
  0x21, 0xe2, 0xc0, 0x3e, 0x9a, 0x89, 0x87, 0xbe, 0x18, 0x97, 0xe8, 0xbe,
  0xed, 0xfd, 0xca, 0x3e, 0xf4, 0x19, 0xb2, 0x3e, 0xd6, 0x40, 0x96, 0xbe,
  0x0d, 0xb3, 0x47, 0xbd, 0xb6, 0x99, 0x6f, 0xbd, 0xf2, 0xa3, 0x91, 0x3e,
  0xc1, 0x08, 0x84, 0x3d, 0x71, 0x98, 0xe2, 0x3d, 0xd0, 0x29, 0x49, 0x3e,
  0xd9, 0x0b, 0x5a, 0xbd, 0xb9, 0xf2, 0x84, 0x3e, 0xdb, 0xa3, 0x5d, 0x3e,
  0x83, 0x6b, 0xd0, 0xbe, 0xf2, 0xfd, 0xc0, 0x3e, 0x25, 0x26, 0xab, 0xbe,
  0xd5, 0x0a, 0xbd, 0xbd, 0x3d, 0xde, 0xba, 0xbd, 0x3d, 0xf4, 0xe2, 0x3e,
  0x48, 0x0c, 0x15, 0x3f, 0xb4, 0x86, 0xe5, 0xbd, 0x65, 0xca, 0xd6, 0xbe,
  0xdc, 0x30, 0x33, 0xbe, 0x00, 0x00, 0x00, 0x00, 0x0a, 0xfe, 0xff, 0xff,
  0x04, 0x00, 0x00, 0x00, 0x08, 0x00, 0x00, 0x00, 0x79, 0x58, 0x61, 0x3e,
  0x75, 0x58, 0x61, 0xbe, 0x00, 0x00, 0x00, 0x00, 0x00, 0x00, 0x00, 0x00,
  0x00, 0x00, 0x00, 0x00, 0x2a, 0xfe, 0xff, 0xff, 0x04, 0x00, 0x00, 0x00,
  0x20, 0x00, 0x00, 0x00, 0x18, 0xe0, 0x7c, 0x3e, 0xef, 0x5e, 0xa7, 0xbd,
  0xc6, 0x5c, 0xcf, 0x3e, 0x10, 0xc9, 0x5f, 0x3e, 0x4f, 0x2f, 0x6d, 0xbb,
  0x51, 0x5e, 0xbb, 0x3d, 0x47, 0x55, 0x6f, 0x3d, 0xd1, 0x73, 0x76, 0x3e,
  0x00, 0x00, 0x00, 0x00, 0x5a, 0xfe, 0xff, 0xff, 0x04, 0x00, 0x00, 0x00,
  0x40, 0x00, 0x00, 0x00, 0xbd, 0xd5, 0x62, 0x3e, 0xfc, 0x37, 0x6b, 0x3d,
  0x96, 0xe9, 0x7d, 0xbc, 0x30, 0xc8, 0xb7, 0xbc, 0x60, 0xf6, 0x83, 0xbd,
  0xaa, 0xd6, 0x0b, 0x3d, 0xcf, 0x6c, 0x7b, 0x3e, 0x8a, 0x62, 0x9c, 0x3e,
  0x68, 0xfa, 0xdf, 0x3c, 0x61, 0xea, 0x98, 0x3c, 0x9a, 0x73, 0x96, 0x3e,
  0x2f, 0x2a, 0xa6, 0xbd, 0x93, 0x8c, 0xd2, 0xbd, 0xc3, 0x0c, 0xcd, 0xbd,
  0xa5, 0xad, 0x14, 0x3d, 0x50, 0x3d, 0x04, 0xbe, 0x00, 0x00, 0x00, 0x00,
  0xaa, 0xfe, 0xff, 0xff, 0x04, 0x00, 0x00, 0x00, 0x40, 0x00, 0x00, 0x00,
  0xf9, 0x9c, 0x8d, 0xbd, 0x57, 0x8e, 0x5e, 0xbd, 0x55, 0x19, 0x8a, 0xbd,
  0xc9, 0xce, 0x88, 0x3e, 0xc8, 0x19, 0x95, 0x3e, 0x5c, 0xcd, 0x88, 0x3e,
  0x7c, 0xc1, 0xf1, 0xbd, 0x33, 0xb5, 0x15, 0xbe, 0x0b, 0xe3, 0xf2, 0xbd,
  0xb0, 0x8e, 0x3a, 0xbd, 0x8a, 0x25, 0xa3, 0xbd, 0x49, 0xe5, 0x04, 0x3d,
  0xd6, 0x3b, 0xe7, 0x3b, 0x8f, 0x65, 0x01, 0xbe, 0x5a, 0x24, 0x09, 0xbd,
  0xb3, 0x1f, 0x57, 0x3e, 0x00, 0x00, 0x00, 0x00, 0xfa, 0xfe, 0xff, 0xff,
  0x04, 0x00, 0x00, 0x00, 0x40, 0x00, 0x00, 0x00, 0x35, 0x65, 0x7a, 0xbe,
  0x65, 0xcd, 0x40, 0xbe, 0xb7, 0x4d, 0xaf, 0x3c, 0x66, 0xf5, 0x41, 0xbe,
  0x13, 0x1f, 0x4c, 0xbe, 0x04, 0xca, 0xdb, 0x3d, 0x73, 0xc2, 0x25, 0xbe,
  0x73, 0x60, 0x51, 0xbe, 0xf9, 0x92, 0x6c, 0xbe, 0xc4, 0x1b, 0xb8, 0xbd,
  0x18, 0x19, 0xf5, 0xbd, 0x85, 0x4b, 0x7b, 0x3d, 0x86, 0x55, 0xba, 0xbd,
  0x0e, 0x71, 0x5c, 0xbd, 0xe2, 0xcf, 0x9d, 0xbd, 0xe3, 0x85, 0x64, 0x3d,
  0x00, 0x00, 0x00, 0x00, 0x00, 0x00, 0x00, 0x00, 0x00, 0x00, 0x00, 0x00,
  0x20, 0xf8, 0xff, 0xff, 0x00, 0x00, 0x00, 0x00, 0x00, 0x00, 0x00, 0x00,
  0x00, 0x00, 0x00, 0x00, 0x30, 0xf8, 0xff, 0xff, 0x00, 0x00, 0x00, 0x00,
  0x0f, 0x00, 0x00, 0x00, 0x4d, 0x4c, 0x49, 0x52, 0x20, 0x43, 0x6f, 0x6e,
  0x76, 0x65, 0x72, 0x74, 0x65, 0x64, 0x2e, 0x00, 0x01, 0x00, 0x00, 0x00,
  0x14, 0x00, 0x00, 0x00, 0x00, 0x00, 0x0e, 0x00, 0x18, 0x00, 0x04, 0x00,
  0x08, 0x00, 0x0c, 0x00, 0x10, 0x00, 0x14, 0x00, 0x0e, 0x00, 0x00, 0x00,
  0xbc, 0x01, 0x00, 0x00, 0xb0, 0x01, 0x00, 0x00, 0xa4, 0x01, 0x00, 0x00,
  0x14, 0x00, 0x00, 0x00, 0x04, 0x00, 0x00, 0x00, 0x04, 0x00, 0x00, 0x00,
  0x6d, 0x61, 0x69, 0x6e, 0x00, 0x00, 0x00, 0x00, 0x06, 0x00, 0x00, 0x00,
  0x4c, 0x01, 0x00, 0x00, 0x04, 0x01, 0x00, 0x00, 0xbc, 0x00, 0x00, 0x00,
  0x84, 0x00, 0x00, 0x00, 0x50, 0x00, 0x00, 0x00, 0x14, 0x00, 0x00, 0x00,
  0x00, 0x00, 0x0e, 0x00, 0x1a, 0x00, 0x08, 0x00, 0x0c, 0x00, 0x10, 0x00,
  0x07, 0x00, 0x14, 0x00, 0x0e, 0x00, 0x00, 0x00, 0x00, 0x00, 0x00, 0x09,
  0x01, 0x00, 0x00, 0x00, 0x24, 0x00, 0x00, 0x00, 0x18, 0x00, 0x00, 0x00,
  0x0c, 0x00, 0x00, 0x00, 0x00, 0x00, 0x06, 0x00, 0x08, 0x00, 0x04, 0x00,
  0x06, 0x00, 0x00, 0x00, 0x00, 0x00, 0x80, 0x3f, 0x01, 0x00, 0x00, 0x00,
  0x10, 0x00, 0x00, 0x00, 0x01, 0x00, 0x00, 0x00, 0x0f, 0x00, 0x00, 0x00,
  0x66, 0xff, 0xff, 0xff, 0x00, 0x00, 0x00, 0x08, 0x18, 0x00, 0x00, 0x00,
  0x0c, 0x00, 0x00, 0x00, 0x04, 0x00, 0x00, 0x00, 0x00, 0xf9, 0xff, 0xff,
  0x01, 0x00, 0x00, 0x00, 0x0f, 0x00, 0x00, 0x00, 0x03, 0x00, 0x00, 0x00,
  0x0e, 0x00, 0x00, 0x00, 0x0a, 0x00, 0x00, 0x00, 0x05, 0x00, 0x00, 0x00,
  0x96, 0xff, 0xff, 0xff, 0x00, 0x00, 0x00, 0x08, 0x1c, 0x00, 0x00, 0x00,
  0x10, 0x00, 0x00, 0x00, 0x04, 0x00, 0x00, 0x00, 0x42, 0xff, 0xff, 0xff,
  0x00, 0x00, 0x00, 0x01, 0x01, 0x00, 0x00, 0x00, 0x0e, 0x00, 0x00, 0x00,
  0x03, 0x00, 0x00, 0x00, 0x0d, 0x00, 0x00, 0x00, 0x09, 0x00, 0x00, 0x00,
  0x04, 0x00, 0x00, 0x00, 0xca, 0xff, 0xff, 0xff, 0x00, 0x00, 0x00, 0x08,
  0x1c, 0x00, 0x00, 0x00, 0x10, 0x00, 0x00, 0x00, 0x04, 0x00, 0x00, 0x00,
  0x76, 0xff, 0xff, 0xff, 0x00, 0x00, 0x00, 0x01, 0x01, 0x00, 0x00, 0x00,
  0x0d, 0x00, 0x00, 0x00, 0x03, 0x00, 0x00, 0x00, 0x0c, 0x00, 0x00, 0x00,
  0x08, 0x00, 0x00, 0x00, 0x03, 0x00, 0x00, 0x00, 0x00, 0x00, 0x0e, 0x00,
  0x14, 0x00, 0x00, 0x00, 0x08, 0x00, 0x0c, 0x00, 0x07, 0x00, 0x10, 0x00,
  0x0e, 0x00, 0x00, 0x00, 0x00, 0x00, 0x00, 0x08, 0x1c, 0x00, 0x00, 0x00,
  0x10, 0x00, 0x00, 0x00, 0x04, 0x00, 0x00, 0x00, 0xba, 0xff, 0xff, 0xff,
  0x00, 0x00, 0x00, 0x01, 0x01, 0x00, 0x00, 0x00, 0x0c, 0x00, 0x00, 0x00,
  0x03, 0x00, 0x00, 0x00, 0x0b, 0x00, 0x00, 0x00, 0x07, 0x00, 0x00, 0x00,
  0x02, 0x00, 0x00, 0x00, 0x00, 0x00, 0x0e, 0x00, 0x16, 0x00, 0x00, 0x00,
  0x08, 0x00, 0x0c, 0x00, 0x07, 0x00, 0x10, 0x00, 0x0e, 0x00, 0x00, 0x00,
  0x00, 0x00, 0x00, 0x08, 0x24, 0x00, 0x00, 0x00, 0x18, 0x00, 0x00, 0x00,
  0x0c, 0x00, 0x00, 0x00, 0x00, 0x00, 0x06, 0x00, 0x08, 0x00, 0x07, 0x00,
  0x06, 0x00, 0x00, 0x00, 0x00, 0x00, 0x00, 0x01, 0x01, 0x00, 0x00, 0x00,
  0x0b, 0x00, 0x00, 0x00, 0x03, 0x00, 0x00, 0x00, 0x00, 0x00, 0x00, 0x00,
  0x06, 0x00, 0x00, 0x00, 0x01, 0x00, 0x00, 0x00, 0x01, 0x00, 0x00, 0x00,
  0x10, 0x00, 0x00, 0x00, 0x01, 0x00, 0x00, 0x00, 0x00, 0x00, 0x00, 0x00,
  0x11, 0x00, 0x00, 0x00, 0xb4, 0x05, 0x00, 0x00, 0x44, 0x05, 0x00, 0x00,
  0xd8, 0x04, 0x00, 0x00, 0x7c, 0x04, 0x00, 0x00, 0x20, 0x04, 0x00, 0x00,
  0xc4, 0x03, 0x00, 0x00, 0x80, 0x03, 0x00, 0x00, 0x38, 0x03, 0x00, 0x00,
  0xf0, 0x02, 0x00, 0x00, 0xa8, 0x02, 0x00, 0x00, 0x60, 0x02, 0x00, 0x00,
  0xf4, 0x01, 0x00, 0x00, 0x84, 0x01, 0x00, 0x00, 0x14, 0x01, 0x00, 0x00,
  0xa4, 0x00, 0x00, 0x00, 0x4c, 0x00, 0x00, 0x00, 0x04, 0x00, 0x00, 0x00,
  0xa4, 0xfa, 0xff, 0xff, 0x34, 0x00, 0x00, 0x00, 0x11, 0x00, 0x00, 0x00,
  0x1c, 0x00, 0x00, 0x00, 0x14, 0x00, 0x00, 0x00, 0x04, 0x00, 0x00, 0x00,
  0x02, 0x00, 0x00, 0x00, 0xff, 0xff, 0xff, 0xff, 0x02, 0x00, 0x00, 0x00,
  0x90, 0xfa, 0xff, 0xff, 0x08, 0x00, 0x00, 0x00, 0x49, 0x64, 0x65, 0x6e,
  0x74, 0x69, 0x74, 0x79, 0x00, 0x00, 0x00, 0x00, 0x02, 0x00, 0x00, 0x00,
  0x01, 0x00, 0x00, 0x00, 0x02, 0x00, 0x00, 0x00, 0xe8, 0xfa, 0xff, 0xff,
  0x44, 0x00, 0x00, 0x00, 0x10, 0x00, 0x00, 0x00, 0x1c, 0x00, 0x00, 0x00,
  0x14, 0x00, 0x00, 0x00, 0x04, 0x00, 0x00, 0x00, 0x02, 0x00, 0x00, 0x00,
  0xff, 0xff, 0xff, 0xff, 0x02, 0x00, 0x00, 0x00, 0xd4, 0xfa, 0xff, 0xff,
  0x1a, 0x00, 0x00, 0x00, 0x73, 0x65, 0x71, 0x75, 0x65, 0x6e, 0x74, 0x69,
  0x61, 0x6c, 0x2f, 0x64, 0x65, 0x6e, 0x73, 0x65, 0x5f, 0x34, 0x2f, 0x42,
  0x69, 0x61, 0x73, 0x41, 0x64, 0x64, 0x00, 0x00, 0x02, 0x00, 0x00, 0x00,
  0x01, 0x00, 0x00, 0x00, 0x02, 0x00, 0x00, 0x00, 0x3c, 0xfb, 0xff, 0xff,
  0x5c, 0x00, 0x00, 0x00, 0x0f, 0x00, 0x00, 0x00, 0x1c, 0x00, 0x00, 0x00,
  0x14, 0x00, 0x00, 0x00, 0x04, 0x00, 0x00, 0x00, 0x02, 0x00, 0x00, 0x00,
  0xff, 0xff, 0xff, 0xff, 0x08, 0x00, 0x00, 0x00, 0x28, 0xfb, 0xff, 0xff,
  0x32, 0x00, 0x00, 0x00, 0x73, 0x65, 0x71, 0x75, 0x65, 0x6e, 0x74, 0x69,
  0x61, 0x6c, 0x2f, 0x64, 0x65, 0x6e, 0x73, 0x65, 0x5f, 0x33, 0x2f, 0x52,
  0x65, 0x6c, 0x75, 0x3b, 0x73, 0x65, 0x71, 0x75, 0x65, 0x6e, 0x74, 0x69,
  0x61, 0x6c, 0x2f, 0x64, 0x65, 0x6e, 0x73, 0x65, 0x5f, 0x33, 0x2f, 0x42,
  0x69, 0x61, 0x73, 0x41, 0x64, 0x64, 0x00, 0x00, 0x02, 0x00, 0x00, 0x00,
  0x01, 0x00, 0x00, 0x00, 0x08, 0x00, 0x00, 0x00, 0xa8, 0xfb, 0xff, 0xff,
  0x5c, 0x00, 0x00, 0x00, 0x0e, 0x00, 0x00, 0x00, 0x1c, 0x00, 0x00, 0x00,
  0x14, 0x00, 0x00, 0x00, 0x04, 0x00, 0x00, 0x00, 0x02, 0x00, 0x00, 0x00,
  0xff, 0xff, 0xff, 0xff, 0x10, 0x00, 0x00, 0x00, 0x94, 0xfb, 0xff, 0xff,
  0x32, 0x00, 0x00, 0x00, 0x73, 0x65, 0x71, 0x75, 0x65, 0x6e, 0x74, 0x69,
  0x61, 0x6c, 0x2f, 0x64, 0x65, 0x6e, 0x73, 0x65, 0x5f, 0x32, 0x2f, 0x52,
  0x65, 0x6c, 0x75, 0x3b, 0x73, 0x65, 0x71, 0x75, 0x65, 0x6e, 0x74, 0x69,
  0x61, 0x6c, 0x2f, 0x64, 0x65, 0x6e, 0x73, 0x65, 0x5f, 0x32, 0x2f, 0x42,
  0x69, 0x61, 0x73, 0x41, 0x64, 0x64, 0x00, 0x00, 0x02, 0x00, 0x00, 0x00,
  0x01, 0x00, 0x00, 0x00, 0x10, 0x00, 0x00, 0x00, 0x14, 0xfc, 0xff, 0xff,
  0x5c, 0x00, 0x00, 0x00, 0x0d, 0x00, 0x00, 0x00, 0x1c, 0x00, 0x00, 0x00,
  0x14, 0x00, 0x00, 0x00, 0x04, 0x00, 0x00, 0x00, 0x02, 0x00, 0x00, 0x00,
  0xff, 0xff, 0xff, 0xff, 0x10, 0x00, 0x00, 0x00, 0x00, 0xfc, 0xff, 0xff,
  0x32, 0x00, 0x00, 0x00, 0x73, 0x65, 0x71, 0x75, 0x65, 0x6e, 0x74, 0x69,
  0x61, 0x6c, 0x2f, 0x64, 0x65, 0x6e, 0x73, 0x65, 0x5f, 0x31, 0x2f, 0x52,
  0x65, 0x6c, 0x75, 0x3b, 0x73, 0x65, 0x71, 0x75, 0x65, 0x6e, 0x74, 0x69,
  0x61, 0x6c, 0x2f, 0x64, 0x65, 0x6e, 0x73, 0x65, 0x5f, 0x31, 0x2f, 0x42,
  0x69, 0x61, 0x73, 0x41, 0x64, 0x64, 0x00, 0x00, 0x02, 0x00, 0x00, 0x00,
  0x01, 0x00, 0x00, 0x00, 0x10, 0x00, 0x00, 0x00, 0x80, 0xfc, 0xff, 0xff,
  0x58, 0x00, 0x00, 0x00, 0x0c, 0x00, 0x00, 0x00, 0x1c, 0x00, 0x00, 0x00,
  0x14, 0x00, 0x00, 0x00, 0x04, 0x00, 0x00, 0x00, 0x02, 0x00, 0x00, 0x00,
  0xff, 0xff, 0xff, 0xff, 0x10, 0x00, 0x00, 0x00, 0x6c, 0xfc, 0xff, 0xff,
  0x2e, 0x00, 0x00, 0x00, 0x73, 0x65, 0x71, 0x75, 0x65, 0x6e, 0x74, 0x69,
  0x61, 0x6c, 0x2f, 0x64, 0x65, 0x6e, 0x73, 0x65, 0x2f, 0x52, 0x65, 0x6c,
  0x75, 0x3b, 0x73, 0x65, 0x71, 0x75, 0x65, 0x6e, 0x74, 0x69, 0x61, 0x6c,
  0x2f, 0x64, 0x65, 0x6e, 0x73, 0x65, 0x2f, 0x42, 0x69, 0x61, 0x73, 0x41,
  0x64, 0x64, 0x00, 0x00, 0x02, 0x00, 0x00, 0x00, 0x01, 0x00, 0x00, 0x00,
  0x10, 0x00, 0x00, 0x00, 0x4e, 0xfd, 0xff, 0xff, 0x34, 0x00, 0x00, 0x00,
  0x0b, 0x00, 0x00, 0x00, 0x0c, 0x00, 0x00, 0x00, 0x04, 0x00, 0x00, 0x00,
  0xc4, 0xfc, 0xff, 0xff, 0x19, 0x00, 0x00, 0x00, 0x73, 0x65, 0x71, 0x75,
  0x65, 0x6e, 0x74, 0x69, 0x61, 0x6c, 0x2f, 0x64, 0x65, 0x6e, 0x73, 0x65,
  0x5f, 0x34, 0x2f, 0x4d, 0x61, 0x74, 0x4d, 0x75, 0x6c, 0x00, 0x00, 0x00,
  0x02, 0x00, 0x00, 0x00, 0x02, 0x00, 0x00, 0x00, 0x08, 0x00, 0x00, 0x00,
  0x92, 0xfd, 0xff, 0xff, 0x34, 0x00, 0x00, 0x00, 0x0a, 0x00, 0x00, 0x00,
  0x0c, 0x00, 0x00, 0x00, 0x04, 0x00, 0x00, 0x00, 0x08, 0xfd, 0xff, 0xff,
  0x19, 0x00, 0x00, 0x00, 0x73, 0x65, 0x71, 0x75, 0x65, 0x6e, 0x74, 0x69,
  0x61, 0x6c, 0x2f, 0x64, 0x65, 0x6e, 0x73, 0x65, 0x5f, 0x33, 0x2f, 0x4d,
  0x61, 0x74, 0x4d, 0x75, 0x6c, 0x00, 0x00, 0x00, 0x02, 0x00, 0x00, 0x00,
  0x08, 0x00, 0x00, 0x00, 0x10, 0x00, 0x00, 0x00, 0xd6, 0xfd, 0xff, 0xff,
  0x34, 0x00, 0x00, 0x00, 0x09, 0x00, 0x00, 0x00, 0x0c, 0x00, 0x00, 0x00,
  0x04, 0x00, 0x00, 0x00, 0x4c, 0xfd, 0xff, 0xff, 0x19, 0x00, 0x00, 0x00,
  0x73, 0x65, 0x71, 0x75, 0x65, 0x6e, 0x74, 0x69, 0x61, 0x6c, 0x2f, 0x64,
  0x65, 0x6e, 0x73, 0x65, 0x5f, 0x32, 0x2f, 0x4d, 0x61, 0x74, 0x4d, 0x75,
  0x6c, 0x00, 0x00, 0x00, 0x02, 0x00, 0x00, 0x00, 0x10, 0x00, 0x00, 0x00,
  0x10, 0x00, 0x00, 0x00, 0x1a, 0xfe, 0xff, 0xff, 0x34, 0x00, 0x00, 0x00,
  0x08, 0x00, 0x00, 0x00, 0x0c, 0x00, 0x00, 0x00, 0x04, 0x00, 0x00, 0x00,
  0x90, 0xfd, 0xff, 0xff, 0x19, 0x00, 0x00, 0x00, 0x73, 0x65, 0x71, 0x75,
  0x65, 0x6e, 0x74, 0x69, 0x61, 0x6c, 0x2f, 0x64, 0x65, 0x6e, 0x73, 0x65,
  0x5f, 0x31, 0x2f, 0x4d, 0x61, 0x74, 0x4d, 0x75, 0x6c, 0x00, 0x00, 0x00,
  0x02, 0x00, 0x00, 0x00, 0x10, 0x00, 0x00, 0x00, 0x10, 0x00, 0x00, 0x00,
  0x5e, 0xfe, 0xff, 0xff, 0x30, 0x00, 0x00, 0x00, 0x07, 0x00, 0x00, 0x00,
  0x0c, 0x00, 0x00, 0x00, 0x04, 0x00, 0x00, 0x00, 0xd4, 0xfd, 0xff, 0xff,
  0x17, 0x00, 0x00, 0x00, 0x73, 0x65, 0x71, 0x75, 0x65, 0x6e, 0x74, 0x69,
  0x61, 0x6c, 0x2f, 0x64, 0x65, 0x6e, 0x73, 0x65, 0x2f, 0x4d, 0x61, 0x74,
  0x4d, 0x75, 0x6c, 0x00, 0x02, 0x00, 0x00, 0x00, 0x10, 0x00, 0x00, 0x00,
  0x10, 0x00, 0x00, 0x00, 0x9e, 0xfe, 0xff, 0xff, 0x4c, 0x00, 0x00, 0x00,
  0x06, 0x00, 0x00, 0x00, 0x0c, 0x00, 0x00, 0x00, 0x04, 0x00, 0x00, 0x00,
  0x14, 0xfe, 0xff, 0xff, 0x32, 0x00, 0x00, 0x00, 0x73, 0x65, 0x71, 0x75,
  0x65, 0x6e, 0x74, 0x69, 0x61, 0x6c, 0x2f, 0x64, 0x65, 0x6e, 0x73, 0x65,
  0x5f, 0x34, 0x2f, 0x42, 0x69, 0x61, 0x73, 0x41, 0x64, 0x64, 0x2f, 0x52,
  0x65, 0x61, 0x64, 0x56, 0x61, 0x72, 0x69, 0x61, 0x62, 0x6c, 0x65, 0x4f,
  0x70, 0x2f, 0x72, 0x65, 0x73, 0x6f, 0x75, 0x72, 0x63, 0x65, 0x00, 0x00,
  0x01, 0x00, 0x00, 0x00, 0x02, 0x00, 0x00, 0x00, 0xf6, 0xfe, 0xff, 0xff,
  0x4c, 0x00, 0x00, 0x00, 0x05, 0x00, 0x00, 0x00, 0x0c, 0x00, 0x00, 0x00,
  0x04, 0x00, 0x00, 0x00, 0x6c, 0xfe, 0xff, 0xff, 0x32, 0x00, 0x00, 0x00,
  0x73, 0x65, 0x71, 0x75, 0x65, 0x6e, 0x74, 0x69, 0x61, 0x6c, 0x2f, 0x64,
  0x65, 0x6e, 0x73, 0x65, 0x5f, 0x33, 0x2f, 0x42, 0x69, 0x61, 0x73, 0x41,
  0x64, 0x64, 0x2f, 0x52, 0x65, 0x61, 0x64, 0x56, 0x61, 0x72, 0x69, 0x61,
  0x62, 0x6c, 0x65, 0x4f, 0x70, 0x2f, 0x72, 0x65, 0x73, 0x6f, 0x75, 0x72,
  0x63, 0x65, 0x00, 0x00, 0x01, 0x00, 0x00, 0x00, 0x08, 0x00, 0x00, 0x00,
  0x4e, 0xff, 0xff, 0xff, 0x4c, 0x00, 0x00, 0x00, 0x04, 0x00, 0x00, 0x00,
  0x0c, 0x00, 0x00, 0x00, 0x04, 0x00, 0x00, 0x00, 0xc4, 0xfe, 0xff, 0xff,
  0x32, 0x00, 0x00, 0x00, 0x73, 0x65, 0x71, 0x75, 0x65, 0x6e, 0x74, 0x69,
  0x61, 0x6c, 0x2f, 0x64, 0x65, 0x6e, 0x73, 0x65, 0x5f, 0x32, 0x2f, 0x42,
  0x69, 0x61, 0x73, 0x41, 0x64, 0x64, 0x2f, 0x52, 0x65, 0x61, 0x64, 0x56,
  0x61, 0x72, 0x69, 0x61, 0x62, 0x6c, 0x65, 0x4f, 0x70, 0x2f, 0x72, 0x65,
  0x73, 0x6f, 0x75, 0x72, 0x63, 0x65, 0x00, 0x00, 0x01, 0x00, 0x00, 0x00,
  0x10, 0x00, 0x00, 0x00, 0xa6, 0xff, 0xff, 0xff, 0x4c, 0x00, 0x00, 0x00,
  0x03, 0x00, 0x00, 0x00, 0x0c, 0x00, 0x00, 0x00, 0x04, 0x00, 0x00, 0x00,
  0x1c, 0xff, 0xff, 0xff, 0x32, 0x00, 0x00, 0x00, 0x73, 0x65, 0x71, 0x75,
  0x65, 0x6e, 0x74, 0x69, 0x61, 0x6c, 0x2f, 0x64, 0x65, 0x6e, 0x73, 0x65,
  0x5f, 0x31, 0x2f, 0x42, 0x69, 0x61, 0x73, 0x41, 0x64, 0x64, 0x2f, 0x52,
  0x65, 0x61, 0x64, 0x56, 0x61, 0x72, 0x69, 0x61, 0x62, 0x6c, 0x65, 0x4f,
  0x70, 0x2f, 0x72, 0x65, 0x73, 0x6f, 0x75, 0x72, 0x63, 0x65, 0x00, 0x00,
  0x01, 0x00, 0x00, 0x00, 0x10, 0x00, 0x00, 0x00, 0x00, 0x00, 0x0e, 0x00,
  0x14, 0x00, 0x04, 0x00, 0x00, 0x00, 0x08, 0x00, 0x0c, 0x00, 0x10, 0x00,
  0x0e, 0x00, 0x00, 0x00, 0x4c, 0x00, 0x00, 0x00, 0x02, 0x00, 0x00, 0x00,
  0x0c, 0x00, 0x00, 0x00, 0x04, 0x00, 0x00, 0x00, 0x84, 0xff, 0xff, 0xff,
  0x30, 0x00, 0x00, 0x00, 0x73, 0x65, 0x71, 0x75, 0x65, 0x6e, 0x74, 0x69,
  0x61, 0x6c, 0x2f, 0x64, 0x65, 0x6e, 0x73, 0x65, 0x2f, 0x42, 0x69, 0x61,
  0x73, 0x41, 0x64, 0x64, 0x2f, 0x52, 0x65, 0x61, 0x64, 0x56, 0x61, 0x72,
  0x69, 0x61, 0x62, 0x6c, 0x65, 0x4f, 0x70, 0x2f, 0x72, 0x65, 0x73, 0x6f,
  0x75, 0x72, 0x63, 0x65, 0x00, 0x00, 0x00, 0x00, 0x01, 0x00, 0x00, 0x00,
  0x10, 0x00, 0x00, 0x00, 0x14, 0x00, 0x18, 0x00, 0x04, 0x00, 0x00, 0x00,
  0x08, 0x00, 0x0c, 0x00, 0x10, 0x00, 0x00, 0x00, 0x00, 0x00, 0x14, 0x00,
  0x14, 0x00, 0x00, 0x00, 0x38, 0x00, 0x00, 0x00, 0x01, 0x00, 0x00, 0x00,
  0x20, 0x00, 0x00, 0x00, 0x18, 0x00, 0x00, 0x00, 0x04, 0x00, 0x00, 0x00,
  0x02, 0x00, 0x00, 0x00, 0xff, 0xff, 0xff, 0xff, 0x10, 0x00, 0x00, 0x00,
  0x04, 0x00, 0x04, 0x00, 0x04, 0x00, 0x00, 0x00, 0x0b, 0x00, 0x00, 0x00,
  0x64, 0x65, 0x6e, 0x73, 0x65, 0x5f, 0x69, 0x6e, 0x70, 0x75, 0x74, 0x00,
  0x02, 0x00, 0x00, 0x00, 0x01, 0x00, 0x00, 0x00, 0x10, 0x00, 0x00, 0x00,
  0x02, 0x00, 0x00, 0x00, 0x20, 0x00, 0x00, 0x00, 0x0c, 0x00, 0x00, 0x00,
  0x00, 0x00, 0x06, 0x00, 0x06, 0x00, 0x05, 0x00, 0x06, 0x00, 0x00, 0x00,
  0x00, 0x19, 0x0a, 0x00, 0x0c, 0x00, 0x07, 0x00, 0x00, 0x00, 0x08, 0x00,
  0x0a, 0x00, 0x00, 0x00, 0x00, 0x00, 0x00, 0x09, 0x03, 0x00, 0x00, 0x00
};
unsigned int converted_model_tflite_len = 6480;
