unsigned char converted_model_tflite[] = {
  0x24, 0x00, 0x00, 0x00, 0x54, 0x46, 0x4c, 0x33, 0x00, 0x00, 0x00, 0x00,
  0x00, 0x00, 0x00, 0x00, 0x00, 0x00, 0x12, 0x00, 0x1c, 0x00, 0x04, 0x00,
  0x08, 0x00, 0x0c, 0x00, 0x10, 0x00, 0x14, 0x00, 0x00, 0x00, 0x18, 0x00,
  0x12, 0x00, 0x00, 0x00, 0x03, 0x00, 0x00, 0x00, 0xa4, 0x17, 0x00, 0x00,
  0x60, 0x0f, 0x00, 0x00, 0x48, 0x0f, 0x00, 0x00, 0x3c, 0x00, 0x00, 0x00,
  0x04, 0x00, 0x00, 0x00, 0x01, 0x00, 0x00, 0x00, 0x0c, 0x00, 0x00, 0x00,
  0x08, 0x00, 0x0c, 0x00, 0x04, 0x00, 0x08, 0x00, 0x08, 0x00, 0x00, 0x00,
  0x08, 0x00, 0x00, 0x00, 0x12, 0x00, 0x00, 0x00, 0x13, 0x00, 0x00, 0x00,
  0x6d, 0x69, 0x6e, 0x5f, 0x72, 0x75, 0x6e, 0x74, 0x69, 0x6d, 0x65, 0x5f,
  0x76, 0x65, 0x72, 0x73, 0x69, 0x6f, 0x6e, 0x00, 0x13, 0x00, 0x00, 0x00,
  0xf4, 0x0e, 0x00, 0x00, 0xe0, 0x0e, 0x00, 0x00, 0xa4, 0x0e, 0x00, 0x00,
  0x50, 0x0e, 0x00, 0x00, 0xfc, 0x0d, 0x00, 0x00, 0xa8, 0x0d, 0x00, 0x00,
  0x84, 0x0d, 0x00, 0x00, 0x70, 0x0b, 0x00, 0x00, 0x5c, 0x09, 0x00, 0x00,
  0x48, 0x05, 0x00, 0x00, 0x34, 0x01, 0x00, 0x00, 0xa0, 0x00, 0x00, 0x00,
  0x94, 0x00, 0x00, 0x00, 0x80, 0x00, 0x00, 0x00, 0x6c, 0x00, 0x00, 0x00,
  0x58, 0x00, 0x00, 0x00, 0x44, 0x00, 0x00, 0x00, 0x30, 0x00, 0x00, 0x00,
  0x04, 0x00, 0x00, 0x00, 0xb2, 0xf0, 0xff, 0xff, 0x04, 0x00, 0x00, 0x00,
  0x10, 0x00, 0x00, 0x00, 0x31, 0x2e, 0x35, 0x2e, 0x30, 0x00, 0x00, 0x00,
  0x00, 0x00, 0x00, 0x00, 0x00, 0x00, 0x00, 0x00, 0x00, 0x00, 0x00, 0x00,
  0x00, 0x00, 0x00, 0x00, 0x00, 0x00, 0x00, 0x00, 0x44, 0xe9, 0xff, 0xff,
  0x00, 0x00, 0x00, 0x00, 0x00, 0x00, 0x00, 0x00, 0x00, 0x00, 0x00, 0x00,
  0x54, 0xe9, 0xff, 0xff, 0x00, 0x00, 0x00, 0x00, 0x00, 0x00, 0x00, 0x00,
  0x00, 0x00, 0x00, 0x00, 0x64, 0xe9, 0xff, 0xff, 0x00, 0x00, 0x00, 0x00,
  0x00, 0x00, 0x00, 0x00, 0x00, 0x00, 0x00, 0x00, 0x74, 0xe9, 0xff, 0xff,
  0x00, 0x00, 0x00, 0x00, 0x00, 0x00, 0x00, 0x00, 0x00, 0x00, 0x00, 0x00,
  0x84, 0xe9, 0xff, 0xff, 0x00, 0x00, 0x00, 0x00, 0x00, 0x00, 0x00, 0x00,
  0x00, 0x00, 0x00, 0x00, 0x94, 0xe9, 0xff, 0xff, 0x00, 0x00, 0x00, 0x00,
  0x32, 0xf1, 0xff, 0xff, 0x04, 0x00, 0x00, 0x00, 0x80, 0x00, 0x00, 0x00,
  0xe8, 0x65, 0x09, 0x3e, 0x90, 0xb0, 0x6d, 0xbf, 0x9a, 0x7e, 0xde, 0xbe,
  0xde, 0x1e, 0x17, 0xbf, 0x32, 0x96, 0x37, 0xbf, 0x66, 0xeb, 0xb4, 0xbe,
  0x92, 0x4d, 0x0d, 0xbf, 0x32, 0x41, 0x8c, 0xbe, 0xde, 0xda, 0x23, 0xbf,
  0x4c, 0xb9, 0x10, 0x3f, 0xd0, 0x0f, 0x2f, 0x3d, 0x97, 0x0e, 0x8d, 0xbe,
  0xf7, 0xbe, 0x85, 0x3f, 0x80, 0x5b, 0x66, 0x3e, 0x0a, 0x22, 0x1a, 0xbf,
  0xb4, 0xa9, 0x76, 0xbf, 0xdb, 0x68, 0x8e, 0xbe, 0xda, 0xb2, 0xe0, 0x3e,
  0xc9, 0x2c, 0xd3, 0x3e, 0xf5, 0x8f, 0x45, 0x3f, 0x10, 0x7b, 0x84, 0x3f,
  0x79, 0x72, 0x65, 0x3f, 0xbf, 0xfd, 0xc9, 0x3e, 0xd8, 0x51, 0xf1, 0xbd,
  0x0d, 0x08, 0xcf, 0x3e, 0x7b, 0x19, 0x90, 0xbd, 0x00, 0xb8, 0xd5, 0x3c,
  0x79, 0x89, 0x6e, 0x3f, 0x93, 0x2e, 0x09, 0xbf, 0x3f, 0x06, 0x5a, 0xbf,
  0x95, 0x03, 0x2a, 0x3f, 0x51, 0x47, 0xfa, 0x3d, 0x00, 0x00, 0x00, 0x00,
  0xc2, 0xf1, 0xff, 0xff, 0x04, 0x00, 0x00, 0x00, 0x00, 0x04, 0x00, 0x00,
  0x8f, 0x1e, 0x85, 0xbe, 0x69, 0x4e, 0x6d, 0xbe, 0xe0, 0x14, 0xdb, 0xbe,
  0xbc, 0x55, 0xc7, 0xbe, 0x24, 0x8c, 0x8d, 0x3d, 0x9c, 0x49, 0xd8, 0xbd,
  0x8a, 0xbc, 0x85, 0xbe, 0x48, 0xfa, 0x3f, 0x3d, 0xcd, 0x73, 0x51, 0xbe,
  0x88, 0x02, 0x7a, 0x3d, 0x93, 0xbe, 0xce, 0x3e, 0xc4, 0xdf, 0xd0, 0xbd,
  0x16, 0x18, 0x6d, 0x3e, 0xfe, 0xb9, 0x76, 0xbe, 0xdb, 0x54, 0x98, 0x3e,
  0x24, 0x22, 0xda, 0x3d, 0xb3, 0x5a, 0x37, 0x3e, 0x4f, 0xf8, 0x42, 0x3f,
  0x59, 0x0e, 0x13, 0x3f, 0x4c, 0x20, 0xd6, 0x3e, 0x90, 0x92, 0xc1, 0xbd,
  0x0d, 0xd0, 0x7f, 0xbe, 0x36, 0x22, 0x1f, 0xbe, 0x68, 0x9e, 0x29, 0x3f,
  0x75, 0x8f, 0xf3, 0xbc, 0x64, 0x94, 0x09, 0xbf, 0xf6, 0xdd, 0x00, 0x3f,
  0xae, 0x5d, 0x1d, 0x3e, 0xf1, 0x03, 0x7c, 0xbe, 0x67, 0xd2, 0x9f, 0x3e,
  0x6c, 0x17, 0xfb, 0xbd, 0xfa, 0xac, 0x23, 0x3f, 0x23, 0x66, 0xe7, 0x3d,
  0x14, 0x03, 0x20, 0x3f, 0x4b, 0x8c, 0x33, 0x3f, 0x1a, 0xf1, 0x82, 0x3e,
  0x00, 0x19, 0x3b, 0x3e, 0x9c, 0xda, 0xbb, 0xbe, 0x4a, 0x7d, 0x72, 0x3e,
  0x95, 0xcf, 0xf4, 0x3e, 0x0e, 0xef, 0x30, 0x3f, 0xeb, 0x4e, 0x89, 0xbe,
  0xf8, 0x56, 0xd3, 0x3e, 0xb7, 0xf1, 0xd4, 0x3d, 0x21, 0x8b, 0xb3, 0xbd,
  0x0e, 0xa4, 0x1b, 0x3f, 0xc8, 0x54, 0x26, 0x3f, 0x24, 0x9e, 0x12, 0x3f,
  0x64, 0x6e, 0xe1, 0xbd, 0xd6, 0x18, 0x22, 0x3f, 0x20, 0xc9, 0x9b, 0x3e,
  0xaa, 0x0a, 0x52, 0x3e, 0x38, 0xbc, 0x7c, 0x3d, 0x40, 0xae, 0x0a, 0xbe,
  0x26, 0x7f, 0x50, 0x3e, 0x91, 0xdd, 0xc9, 0x3e, 0x4e, 0x93, 0xf0, 0xba,
  0x58, 0x22, 0xc3, 0xbd, 0x57, 0x2a, 0xa8, 0x3c, 0xfe, 0xe2, 0x2a, 0x3f,
  0xcc, 0xb0, 0x5e, 0xbe, 0x4d, 0x32, 0x47, 0x3f, 0x81, 0xe4, 0xec, 0x3d,
  0x7d, 0xa3, 0x51, 0x3e, 0x73, 0x00, 0x82, 0x3e, 0x11, 0xb8, 0xa4, 0x3e,
  0x0b, 0x38, 0x0d, 0x3f, 0x8d, 0x47, 0x85, 0x3e, 0x3e, 0x69, 0x06, 0x3e,
  0xa4, 0x8d, 0x96, 0xbe, 0x07, 0x9f, 0xbb, 0xbe, 0xec, 0xa7, 0x1f, 0x3f,
  0x7e, 0xd8, 0x37, 0xbe, 0x23, 0xd2, 0xf5, 0xbe, 0x02, 0xb8, 0xb3, 0xbd,
  0x4a, 0x7d, 0x06, 0x3f, 0xf0, 0x84, 0x0a, 0xbf, 0xa9, 0xde, 0x1b, 0x3e,
  0x6d, 0xee, 0x15, 0x3f, 0xda, 0x11, 0x34, 0xbc, 0x0c, 0x7e, 0xba, 0x3e,
  0x2a, 0xf7, 0x34, 0x3e, 0x39, 0xca, 0x3f, 0x3e, 0x78, 0x4a, 0xa3, 0xbe,
  0x07, 0x60, 0xa9, 0x3e, 0x27, 0x4c, 0x75, 0x3e, 0x6c, 0xfd, 0xd6, 0xbd,
  0xc0, 0xac, 0x28, 0x3f, 0xde, 0x3e, 0xf7, 0x3c, 0xe6, 0x1e, 0x99, 0xbe,
  0x57, 0x87, 0x3e, 0xbe, 0x02, 0xc9, 0x52, 0x3e, 0x07, 0xa5, 0xf3, 0xbe,
  0xcd, 0x9c, 0x5e, 0x3e, 0xea, 0xb9, 0xb7, 0x3e, 0xc0, 0x8f, 0x11, 0x3f,
  0x3e, 0x25, 0x91, 0x3d, 0x72, 0xf4, 0xa3, 0x3e, 0x3f, 0x7f, 0x27, 0x3e,
  0xcc, 0x72, 0x82, 0x3e, 0xc9, 0x00, 0x65, 0x3e, 0x77, 0x55, 0xb6, 0xbe,
  0x88, 0x48, 0xaa, 0xbd, 0x0d, 0xe7, 0xb6, 0x3c, 0x67, 0x8b, 0x02, 0x3f,
  0xca, 0x6c, 0x7f, 0xbe, 0xfd, 0x3e, 0x1b, 0x3f, 0xac, 0xb5, 0x95, 0x3e,
  0x76, 0x21, 0x57, 0x3d, 0x01, 0x16, 0xad, 0x3e, 0x68, 0x14, 0x12, 0x3f,
  0x92, 0xc3, 0xd3, 0x3e, 0x6c, 0xc7, 0xf9, 0xbd, 0x9c, 0xef, 0x80, 0xbe,
  0x32, 0x22, 0x45, 0xbe, 0xc2, 0x41, 0x17, 0xbe, 0xec, 0x6a, 0xa2, 0x3d,
  0x08, 0xcc, 0x4f, 0x3d, 0xcf, 0xa2, 0xd9, 0x3e, 0x70, 0x79, 0x21, 0xbd,
  0x79, 0x79, 0x73, 0xbe, 0xc1, 0x5d, 0xb6, 0x3e, 0x40, 0x96, 0xe6, 0x3c,
  0x00, 0x8d, 0x3c, 0x3b, 0x18, 0x87, 0x39, 0xbd, 0xc5, 0x1b, 0x80, 0x3e,
  0x9c, 0x4e, 0x24, 0xbe, 0xea, 0x37, 0x20, 0x3e, 0xa9, 0x1f, 0xd1, 0xbd,
  0x6b, 0xe3, 0x1a, 0x3e, 0x2c, 0x9c, 0x4e, 0x3f, 0x15, 0xc9, 0xe1, 0x3e,
  0xf0, 0xdc, 0xbf, 0xbd, 0x72, 0x3c, 0x90, 0x3e, 0x8e, 0x83, 0x33, 0xbe,
  0x7f, 0xa9, 0x37, 0x3f, 0x6a, 0xfb, 0x89, 0x3e, 0xdf, 0x65, 0x16, 0xbd,
  0xe3, 0x0e, 0x1a, 0x3f, 0x80, 0x7d, 0x28, 0x3f, 0x6f, 0xac, 0x3b, 0x3c,
  0x66, 0x87, 0x04, 0x3f, 0x2b, 0x53, 0x13, 0x3f, 0x79, 0x6f, 0x08, 0xbd,
  0x97, 0x54, 0x89, 0xbe, 0x6c, 0x27, 0x5d, 0xbe, 0x0d, 0xa0, 0xa9, 0xbe,
  0xdc, 0xce, 0x94, 0x3c, 0xd3, 0xc1, 0x78, 0xbe, 0xfa, 0x35, 0x0e, 0x3e,
  0x13, 0x46, 0x9f, 0x3e, 0x92, 0xa9, 0x61, 0x3e, 0xe0, 0x8b, 0x47, 0x3e,
  0x6c, 0xfe, 0x36, 0x3d, 0x76, 0x83, 0x85, 0xbe, 0xf4, 0x96, 0xa5, 0x3d,
  0xc7, 0xc9, 0xa8, 0x3e, 0xfc, 0xa4, 0x3d, 0x3e, 0x94, 0x21, 0x7a, 0xbd,
  0xdc, 0x63, 0xc4, 0x3e, 0x6a, 0x73, 0xc8, 0xbe, 0x90, 0xc0, 0x6b, 0x3d,
  0x90, 0x0b, 0xce, 0xbe, 0x6b, 0x0c, 0x89, 0x3e, 0x08, 0x67, 0x31, 0xbd,
  0xce, 0xa9, 0x15, 0xbe, 0x60, 0xc4, 0x18, 0xbc, 0xf6, 0x52, 0xa3, 0xbe,
  0x6c, 0x5e, 0x78, 0xbe, 0xfe, 0x53, 0x79, 0xbe, 0xe6, 0x9c, 0x0e, 0xbe,
  0xb2, 0x7e, 0x0b, 0x3e, 0x12, 0x36, 0x78, 0xbe, 0xd4, 0x7a, 0x1e, 0xbe,
  0x97, 0x34, 0xb6, 0x3e, 0xfe, 0x04, 0x58, 0x3e, 0xba, 0xb2, 0x4b, 0xbd,
  0x1c, 0x37, 0x24, 0x3f, 0xc7, 0xae, 0x2b, 0x3f, 0xde, 0x82, 0x51, 0x3e,
  0x02, 0xb3, 0x8f, 0x3d, 0xa7, 0x18, 0x5b, 0x3e, 0xbc, 0xef, 0xeb, 0x3d,
  0x32, 0x63, 0x33, 0x3f, 0x34, 0x22, 0xec, 0x3e, 0xae, 0xa5, 0x5d, 0x3e,
  0xd8, 0x25, 0x83, 0x3e, 0x2b, 0xd0, 0x9b, 0x3c, 0x3d, 0x8f, 0xba, 0xbe,
  0xd6, 0xf9, 0xd9, 0x3e, 0x5e, 0x31, 0x86, 0x3e, 0x46, 0x4c, 0x11, 0x3e,
  0x8a, 0xfe, 0x12, 0x3f, 0x56, 0xaf, 0x20, 0xbf, 0x95, 0xe8, 0x30, 0xbf,
  0x9c, 0x80, 0xef, 0xbd, 0x7d, 0x85, 0xd4, 0xbe, 0x90, 0x76, 0x89, 0x3d,
  0xdf, 0xa9, 0x92, 0x3e, 0x2d, 0xdd, 0xda, 0xbe, 0x8e, 0xe3, 0x65, 0xbe,
  0xc3, 0x01, 0x02, 0x3f, 0x7f, 0xdf, 0x34, 0xbe, 0xef, 0xad, 0xab, 0xbd,
  0xad, 0x93, 0x17, 0x3f, 0x47, 0xae, 0x37, 0xbf, 0xfd, 0x49, 0xc4, 0x3c,
  0x43, 0x7b, 0x1a, 0xbe, 0x1c, 0x2f, 0x76, 0x3e, 0x07, 0xa6, 0x0d, 0xbf,
  0x9f, 0x19, 0x3e, 0xbf, 0x50, 0xfa, 0xdf, 0x3e, 0xbc, 0xe1, 0x88, 0xbe,
  0xe7, 0xd7, 0x4b, 0xbe, 0xa8, 0x51, 0x0d, 0xbd, 0xae, 0x6a, 0xea, 0xbe,
  0x1f, 0x51, 0x2b, 0xbe, 0x1a, 0x20, 0x0f, 0x3f, 0xd4, 0xca, 0xe3, 0xbe,
  0x56, 0x1c, 0x14, 0xbf, 0x90, 0xec, 0x23, 0x3f, 0x0a, 0x70, 0x21, 0xbf,
  0x16, 0x78, 0xbf, 0x3d, 0xbf, 0x34, 0xfe, 0xbe, 0x80, 0x75, 0x53, 0xbd,
  0xb0, 0x75, 0x55, 0x3f, 0x9a, 0xa4, 0x54, 0x3f, 0x65, 0x85, 0x8e, 0x3e,
  0x64, 0xf4, 0xb9, 0xbd, 0x78, 0x3f, 0x55, 0xbd, 0x80, 0x15, 0xbf, 0x3b,
  0xb7, 0x2e, 0xff, 0x3e, 0x8a, 0x9e, 0xb4, 0x3d, 0xb7, 0x35, 0x70, 0x3d,
  0xab, 0x60, 0xf7, 0x3d, 0xa1, 0x28, 0xd1, 0x3e, 0x78, 0x39, 0x8f, 0xbe,
  0x0f, 0x3b, 0x38, 0x3f, 0x9d, 0xbe, 0x60, 0x3e, 0xf3, 0x4b, 0xee, 0x3e,
  0x4e, 0xaf, 0x55, 0x3e, 0x39, 0xf1, 0xda, 0x3e, 0xfb, 0x84, 0x2c, 0x3f,
  0x12, 0x78, 0x15, 0xbe, 0x34, 0x6c, 0x93, 0x3e, 0x47, 0xf1, 0xe6, 0x3d,
  0x30, 0x28, 0x81, 0xbc, 0x3d, 0x0d, 0x42, 0x3f, 0xac, 0x16, 0x3f, 0x3e,
  0x38, 0x4e, 0x90, 0xbd, 0xb4, 0xf2, 0xf7, 0x3e, 0xc2, 0xf0, 0x2f, 0x3f,
  0x01, 0x0a, 0xb2, 0xbe, 0xab, 0x51, 0xd8, 0x3e, 0x8d, 0x6c, 0xe1, 0x3e,
  0x9a, 0x2b, 0xb2, 0xbd, 0x00, 0x00, 0x00, 0x00, 0xd2, 0xf5, 0xff, 0xff,
  0x04, 0x00, 0x00, 0x00, 0x00, 0x04, 0x00, 0x00, 0x69, 0xa5, 0x30, 0x3f,
  0x8b, 0x9c, 0x3f, 0xbe, 0x50, 0xc4, 0x25, 0xbd, 0x6b, 0x0f, 0x97, 0xbe,
  0x16, 0xfd, 0x99, 0xbe, 0x57, 0x18, 0x49, 0x3f, 0xfa, 0xcf, 0xd2, 0xbc,
  0x0a, 0x70, 0x98, 0x3e, 0x12, 0xce, 0xd2, 0x3e, 0xb2, 0x7f, 0x8a, 0x3c,
  0x98, 0x05, 0x21, 0x3f, 0x5c, 0xc5, 0x3a, 0x3e, 0xac, 0x2a, 0x45, 0x3f,
  0x5a, 0x2c, 0x92, 0x3e, 0x19, 0x80, 0xce, 0x3e, 0xaa, 0x00, 0x8e, 0x3e,
  0x5c, 0x1f, 0x26, 0xbe, 0xdc, 0xdb, 0x91, 0xbe, 0x00, 0xab, 0xdf, 0xbd,
  0x4b, 0x0b, 0x08, 0xbe, 0x46, 0x7c, 0x67, 0x3e, 0x81, 0xd5, 0xc9, 0x3e,
  0xf2, 0x0f, 0x34, 0xbe, 0x8f, 0x48, 0x05, 0x3f, 0x6d, 0x8d, 0xa2, 0xbc,
  0x4d, 0x18, 0xbb, 0x3e, 0x10, 0x2e, 0xdc, 0xbd, 0x46, 0xa1, 0xe6, 0xbe,
  0x0d, 0x53, 0x8b, 0x3e, 0xb4, 0xbe, 0x1e, 0x3f, 0x62, 0xeb, 0xca, 0xbe,
  0xda, 0x2b, 0x7c, 0xbe, 0x9b, 0xe0, 0xb7, 0xbe, 0xe8, 0x65, 0x28, 0xbe,
  0xfc, 0x79, 0xc4, 0x3d, 0xc5, 0x7b, 0xc1, 0xbe, 0xe9, 0x3c, 0x83, 0x3e,
  0xed, 0x35, 0x0a, 0x3f, 0x82, 0xe6, 0x09, 0xbe, 0x29, 0x7e, 0x0f, 0x3f,
  0xcf, 0x4c, 0x36, 0x3f, 0x91, 0x65, 0x34, 0x3e, 0x3d, 0x51, 0x24, 0xbe,
  0x91, 0x21, 0xa3, 0xbe, 0xae, 0xd7, 0xe4, 0x3e, 0xa5, 0x2b, 0xc0, 0x3e,
  0x28, 0x68, 0x67, 0x3d, 0xc3, 0xc3, 0xb2, 0xbe, 0x96, 0xd7, 0x4d, 0x3e,
  0x82, 0xee, 0x3d, 0xbe, 0xe5, 0x30, 0x48, 0xbe, 0xe1, 0x26, 0x90, 0xbe,
  0x28, 0xbb, 0xb3, 0xbe, 0xa9, 0xa8, 0xf1, 0x3e, 0x75, 0xde, 0x97, 0x3d,
  0x09, 0xd1, 0x8f, 0xbe, 0x71, 0xdc, 0xac, 0x3e, 0x96, 0xd0, 0x13, 0x3f,
  0x44, 0xe6, 0xc2, 0xbd, 0x33, 0xc7, 0xa4, 0x3e, 0x6d, 0x36, 0xc4, 0x3e,
  0xef, 0xde, 0x43, 0xbd, 0xc3, 0xed, 0x88, 0x3e, 0xe2, 0xd0, 0xbd, 0x3d,
  0x1d, 0xd6, 0x8f, 0xbe, 0x84, 0xed, 0xdb, 0xbe, 0x3a, 0x88, 0x4b, 0xbe,
  0x20, 0x01, 0xbb, 0xbe, 0x1c, 0xbe, 0xf6, 0xbd, 0x8d, 0x85, 0x2a, 0xbe,
  0x72, 0x12, 0x9f, 0x3e, 0xd6, 0x11, 0x73, 0xbe, 0xd5, 0x7d, 0x82, 0xbe,
  0xb9, 0x0a, 0xc7, 0xbd, 0x97, 0xa6, 0xa9, 0xbe, 0x5e, 0xc2, 0xc3, 0xbe,
  0x2a, 0x61, 0xc7, 0xbd, 0xd4, 0x8e, 0xcc, 0x3d, 0x29, 0x76, 0xc8, 0x3e,
  0xd4, 0x8b, 0x82, 0x3e, 0x66, 0x42, 0xbb, 0xbe, 0xda, 0xd2, 0x0b, 0x3e,
  0xfe, 0x10, 0xa5, 0xbe, 0x49, 0x06, 0x8c, 0xbe, 0xb3, 0x5a, 0xa5, 0xbe,
  0x68, 0xd6, 0x13, 0xbe, 0x11, 0x2b, 0x9d, 0xbe, 0xef, 0x12, 0x8f, 0x3d,
  0x9d, 0x29, 0x97, 0xbe, 0x37, 0x1e, 0xc6, 0xbd, 0x1d, 0x4c, 0x8e, 0xbe,
  0xac, 0x6f, 0x80, 0xbe, 0xbc, 0xfc, 0xbc, 0x3e, 0x1c, 0xd4, 0xcb, 0xbe,
  0x00, 0x1e, 0x13, 0x3a, 0xc6, 0x0f, 0x83, 0xbe, 0x62, 0x41, 0x13, 0xbe,
  0xc0, 0xc5, 0x93, 0xbc, 0x6e, 0xf8, 0x18, 0x3e, 0x8e, 0xc1, 0xb2, 0xbe,
  0xd4, 0x64, 0x8f, 0xbe, 0x0a, 0x56, 0xdd, 0xbe, 0xbe, 0x9f, 0x52, 0xbe,
  0x48, 0x28, 0x79, 0xbd, 0xaa, 0xc2, 0x3e, 0x3e, 0x87, 0x62, 0xb3, 0x3e,
  0xe0, 0x48, 0x13, 0xbe, 0x10, 0x90, 0x8f, 0xbd, 0xf2, 0x22, 0x29, 0xbe,
  0xe4, 0xfd, 0x25, 0xbe, 0xe2, 0x90, 0xa6, 0xbe, 0x8c, 0x7f, 0x3a, 0xbe,
  0xe8, 0x3b, 0x80, 0x3d, 0xf1, 0x2c, 0x97, 0x3e, 0xf0, 0x7c, 0x3f, 0x3d,
  0x54, 0x8d, 0xd9, 0x3e, 0x8a, 0x68, 0x3a, 0x3e, 0xa8, 0x6a, 0xfc, 0x3e,
  0x1b, 0x45, 0x3b, 0x3e, 0xbb, 0xb3, 0x03, 0x3e, 0x5a, 0xa3, 0xe7, 0xbc,
  0x4a, 0x93, 0x29, 0xbe, 0x86, 0x8d, 0xa0, 0xbd, 0x7e, 0x8e, 0xea, 0xbe,
  0xac, 0xd0, 0xbf, 0xbe, 0xd8, 0xec, 0x56, 0xbd, 0x89, 0x61, 0xbd, 0x3e,
  0xd1, 0xf1, 0x99, 0x3e, 0x24, 0x4b, 0xcd, 0xbe, 0x0b, 0xae, 0x86, 0x3e,
  0xee, 0xbf, 0x74, 0x3e, 0xe7, 0xed, 0x52, 0xbe, 0x43, 0x02, 0xbb, 0xbe,
  0x54, 0x66, 0x90, 0x3e, 0x1c, 0xbd, 0xab, 0x3e, 0xf0, 0x81, 0xa9, 0x3d,
  0x69, 0xce, 0x6a, 0xbe, 0xfe, 0x27, 0x93, 0xbe, 0xb3, 0xf2, 0x70, 0xbd,
  0x41, 0x65, 0x3e, 0x3d, 0xc6, 0x42, 0x13, 0x3e, 0xdf, 0x28, 0x62, 0x3c,
  0xae, 0x3e, 0x0c, 0x3e, 0x25, 0xe8, 0x98, 0x3e, 0xc9, 0x53, 0x08, 0x3f,
  0xca, 0xdd, 0x90, 0xbe, 0x5a, 0x80, 0x54, 0x3e, 0xd8, 0xa8, 0xc1, 0x3e,
  0x57, 0xe3, 0x8b, 0x3e, 0x19, 0x1a, 0x3d, 0x3e, 0x15, 0x02, 0xab, 0x3e,
  0x91, 0x44, 0x8d, 0xbe, 0xa5, 0x30, 0x2c, 0xbf, 0xe8, 0x7e, 0x41, 0x3e,
  0xc3, 0xf6, 0x0d, 0xbe, 0x31, 0x79, 0xa9, 0x3e, 0xe8, 0x11, 0x80, 0xbd,
  0x5f, 0x0c, 0x1a, 0xbf, 0xdc, 0x30, 0x87, 0x3d, 0x0c, 0xd3, 0x50, 0xbe,
  0x40, 0xe8, 0x0c, 0xbe, 0x92, 0x9c, 0x52, 0x3e, 0xaa, 0x40, 0x3f, 0x3e,
  0x33, 0xc7, 0x96, 0x3e, 0xb4, 0x99, 0xe1, 0x3d, 0x02, 0x01, 0xbf, 0x3e,
  0x81, 0x53, 0xb2, 0x3e, 0xe8, 0xfa, 0xcb, 0xbe, 0x64, 0x10, 0x4f, 0x3e,
  0x60, 0xc2, 0x3b, 0x3d, 0x0b, 0x12, 0x78, 0xbe, 0x32, 0xe9, 0x59, 0x3e,
  0xe1, 0x58, 0x43, 0x3e, 0x74, 0xdd, 0x27, 0x3f, 0x80, 0x73, 0x76, 0xbb,
  0x95, 0x95, 0x95, 0x3e, 0x25, 0x45, 0xb3, 0xbd, 0xcc, 0x19, 0xc0, 0xbd,
  0xa3, 0x12, 0xc8, 0x3e, 0xfc, 0x46, 0xb1, 0xbe, 0x68, 0x56, 0xd3, 0xbe,
  0x82, 0x40, 0x0b, 0x3e, 0xf0, 0xf7, 0x20, 0xbe, 0xd4, 0x65, 0xd3, 0x3e,
  0x8d, 0x1e, 0x1b, 0x3f, 0x9c, 0x41, 0xa7, 0xbc, 0x22, 0x23, 0x6c, 0xbe,
  0x10, 0x59, 0xa2, 0xbe, 0x76, 0x44, 0xf6, 0x3e, 0x8c, 0x21, 0x9c, 0x3e,
  0x9e, 0xdf, 0x68, 0x3e, 0xf6, 0xa3, 0xe4, 0xbd, 0xa7, 0xb7, 0xbc, 0xbd,
  0xc8, 0x7d, 0x32, 0x3d, 0x40, 0x98, 0x8d, 0xbb, 0xa6, 0x85, 0x99, 0xbd,
  0xb0, 0x52, 0xf7, 0xbd, 0x03, 0x19, 0x99, 0xbd, 0x06, 0xff, 0x10, 0x3e,
  0x2c, 0x15, 0x21, 0x3e, 0x4c, 0xb7, 0x30, 0xbf, 0x0d, 0x30, 0xb0, 0x3e,
  0x97, 0x6d, 0xe9, 0x3e, 0x7d, 0x3c, 0xd1, 0x3d, 0x68, 0x0c, 0xce, 0xbe,
  0x27, 0xf1, 0x29, 0x3d, 0xee, 0xe8, 0x30, 0x3e, 0x7e, 0x74, 0x20, 0x3e,
  0x7a, 0x62, 0x13, 0x3e, 0xe4, 0x37, 0x8f, 0xbe, 0x9d, 0x33, 0x8a, 0xbe,
  0x10, 0x6c, 0xe0, 0xbd, 0x14, 0x5e, 0xb3, 0x3d, 0xdd, 0xe7, 0x68, 0xbe,
  0x0b, 0x62, 0x3c, 0xbe, 0x50, 0xcd, 0xc3, 0xbb, 0x1d, 0x59, 0x3e, 0x3f,
  0x94, 0x49, 0x6e, 0x3e, 0x41, 0xd9, 0xeb, 0xbd, 0xda, 0x93, 0xb5, 0x3c,
  0x0e, 0xee, 0xb1, 0x3e, 0x34, 0x90, 0x2c, 0x3f, 0x41, 0xb7, 0xc1, 0x3e,
  0xbc, 0xa4, 0xe4, 0x3e, 0xe4, 0xad, 0xb9, 0x3e, 0xa2, 0x48, 0x90, 0xbe,
  0xf6, 0x4e, 0x17, 0xbe, 0xd0, 0xb4, 0x9f, 0xbc, 0xcc, 0x76, 0xdd, 0xbe,
  0x9a, 0x55, 0x92, 0xbc, 0xc8, 0x7f, 0x95, 0x3d, 0xac, 0x78, 0x87, 0xbe,
  0x0a, 0xa6, 0xcb, 0x3d, 0x50, 0xff, 0x81, 0xbe, 0x59, 0xf0, 0xe3, 0x3d,
  0xa3, 0x08, 0x95, 0xbe, 0x6c, 0xbf, 0xa3, 0xbe, 0x49, 0xa6, 0x5b, 0xbe,
  0xd2, 0x6b, 0xa1, 0xbe, 0xae, 0x6b, 0x92, 0x3e, 0xe4, 0x2e, 0x98, 0x3e,
  0xfe, 0xc1, 0x56, 0x3e, 0xdd, 0x45, 0x76, 0xbe, 0x1a, 0x42, 0xab, 0xbe,
  0x34, 0xe7, 0xac, 0x3d, 0xa6, 0xcd, 0x72, 0xbe, 0x87, 0xd3, 0xad, 0xbd,
  0xb5, 0x12, 0x04, 0xbe, 0x2f, 0xf6, 0x3c, 0x3f, 0x31, 0xef, 0x7b, 0xbe,
  0xba, 0x20, 0xea, 0x3d, 0xe4, 0x2c, 0xd0, 0x3d, 0xba, 0x5c, 0x9d, 0xbe,
  0xe6, 0x91, 0xd8, 0x3e, 0xb4, 0x10, 0x22, 0xbe, 0x19, 0xd2, 0x11, 0x3f,
  0x00, 0x00, 0x00, 0x00, 0xe2, 0xf9, 0xff, 0xff, 0x04, 0x00, 0x00, 0x00,
  0x00, 0x02, 0x00, 0x00, 0x4c, 0xa7, 0x00, 0x3e, 0xda, 0x57, 0x9b, 0xbc,
  0x9a, 0x1e, 0xc7, 0xbd, 0xc0, 0xe8, 0xa3, 0xbd, 0x6c, 0x7f, 0xee, 0xbe,
  0x9c, 0x34, 0x0e, 0xbe, 0xf1, 0x1b, 0x7f, 0xbe, 0x56, 0xb9, 0x8f, 0x3e,
  0x40, 0xfa, 0x73, 0x3d, 0x00, 0x47, 0x93, 0x3d, 0x00, 0x10, 0xba, 0xbe,
  0xe0, 0x1a, 0xb0, 0xbe, 0xa8, 0x2a, 0xc4, 0x3e, 0x00, 0x26, 0x7e, 0xbe,
  0x00, 0x3b, 0x07, 0xbd, 0xe8, 0xd0, 0x88, 0xbe, 0x80, 0xca, 0x31, 0xbe,
  0xc4, 0xce, 0x97, 0xbe, 0x9c, 0x64, 0xd6, 0x3e, 0xdc, 0xfe, 0xe0, 0x3e,
  0x58, 0x86, 0x6c, 0xbe, 0xe0, 0x92, 0xf3, 0xbe, 0x00, 0x3f, 0xab, 0xbd,
  0x68, 0xb7, 0x8c, 0xbe, 0x2c, 0xb4, 0xd5, 0x3e, 0x60, 0xb4, 0x13, 0xbe,
  0xa5, 0x89, 0x1d, 0xbd, 0xfc, 0xcc, 0xca, 0xbe, 0xf0, 0x41, 0xd2, 0x3d,
  0x7e, 0x8c, 0x8a, 0x3e, 0xd4, 0xc2, 0x92, 0x3e, 0xaa, 0xd3, 0x32, 0xbe,
  0xf0, 0x9b, 0x8f, 0xbe, 0xf0, 0x00, 0x9f, 0x3d, 0x00, 0xe2, 0x67, 0xbe,
  0x50, 0xa4, 0x96, 0xbe, 0xb4, 0x5e, 0x95, 0xbe, 0x74, 0xe3, 0xcb, 0x3e,
  0xe0, 0xd0, 0xbb, 0xbd, 0xbc, 0x56, 0xb1, 0xbe, 0x59, 0x74, 0xd2, 0xbe,
  0x3b, 0x84, 0x8d, 0x3e, 0x07, 0x02, 0xc7, 0xbe, 0xf4, 0xe5, 0xea, 0xbe,
  0xf0, 0x4b, 0x7a, 0x3e, 0xbe, 0xe4, 0x88, 0x3e, 0xf2, 0x33, 0x5e, 0x3e,
  0x2f, 0xaa, 0xf1, 0x3e, 0x58, 0x77, 0x99, 0xbe, 0x9a, 0x91, 0xe2, 0x3e,
  0x43, 0x72, 0x47, 0xbe, 0x20, 0xd1, 0xad, 0x3d, 0x50, 0x7d, 0xc6, 0xbe,
  0xb8, 0x76, 0xe4, 0x3d, 0x69, 0x19, 0x8c, 0xbe, 0x17, 0x53, 0x8d, 0xba,
  0x11, 0xb9, 0xe2, 0xbe, 0x06, 0xaf, 0x9d, 0x3b, 0x5f, 0x85, 0x16, 0x3f,
  0xb4, 0x23, 0xc2, 0xbe, 0xa8, 0x1c, 0x8e, 0xbe, 0xdd, 0xe9, 0x41, 0x3f,
  0x0c, 0x47, 0x19, 0xbd, 0x23, 0xe2, 0x28, 0x3e, 0xe6, 0x18, 0xad, 0xbe,
  0x35, 0x90, 0x61, 0x3e, 0x4e, 0xfb, 0x27, 0xbf, 0x30, 0x9d, 0xf9, 0x3d,
  0xf4, 0x0b, 0xc2, 0x3e, 0x13, 0x3e, 0xee, 0x3d, 0xf5, 0xf4, 0xff, 0xbd,
  0x55, 0x25, 0x15, 0x3e, 0xab, 0x10, 0x85, 0xbb, 0x2e, 0x4e, 0x84, 0x3e,
  0x19, 0x1a, 0x19, 0x3e, 0x70, 0x78, 0x7c, 0x3e, 0x18, 0x7c, 0x79, 0x3e,
  0x7b, 0x4c, 0x5d, 0xbe, 0xeb, 0x55, 0x3a, 0x3f, 0xd7, 0x31, 0xe6, 0x3d,
  0x16, 0x71, 0xd2, 0xbe, 0x40, 0xa4, 0x1e, 0xbe, 0x68, 0xc3, 0xf2, 0x3c,
  0x60, 0x67, 0x65, 0xbe, 0x04, 0x02, 0x90, 0x3e, 0x1d, 0x92, 0x0f, 0xbf,
  0x3a, 0xa8, 0xe0, 0xbe, 0x69, 0x7b, 0x5e, 0x3e, 0xdc, 0xd1, 0xb6, 0xbe,
  0xcc, 0x2a, 0x12, 0x3d, 0x01, 0x3f, 0x0e, 0x3e, 0x70, 0x06, 0xc7, 0xbe,
  0xd8, 0x8d, 0x67, 0xbe, 0x77, 0x03, 0x32, 0xbf, 0xdf, 0xf6, 0x2f, 0xbf,
  0xd1, 0x88, 0x53, 0x3c, 0x94, 0x07, 0xc8, 0xbd, 0x63, 0xb2, 0x81, 0x3e,
  0x0f, 0x6c, 0xf4, 0x3e, 0xb0, 0x69, 0xd9, 0x3d, 0x50, 0x69, 0xaf, 0xbe,
  0x6a, 0x17, 0xa9, 0x3e, 0x58, 0x14, 0xf9, 0x3e, 0x3a, 0x2a, 0xb3, 0x3d,
  0x20, 0x74, 0xcb, 0xbd, 0xe3, 0x0a, 0x7c, 0x3e, 0xd3, 0xd4, 0xed, 0x3d,
  0xa4, 0xc4, 0xc5, 0x3e, 0x44, 0x5f, 0xff, 0x3e, 0x5a, 0x64, 0x2f, 0x3e,
  0xb9, 0xd5, 0x41, 0x3f, 0x36, 0x04, 0xf3, 0xbd, 0xc8, 0xfd, 0xbf, 0xbe,
  0x88, 0x22, 0x0a, 0xbe, 0x60, 0x83, 0x8f, 0xbe, 0x18, 0x27, 0xe4, 0x3e,
  0x30, 0x39, 0xe9, 0x3e, 0xc8, 0x70, 0x92, 0xbe, 0xb8, 0x00, 0xcd, 0xbe,
  0x20, 0xbb, 0x3f, 0xbe, 0xb5, 0xd1, 0xc2, 0x3d, 0xfa, 0x5a, 0xa2, 0x3d,
  0xc4, 0x6b, 0x27, 0xbf, 0xc0, 0x60, 0x92, 0x3c, 0x38, 0x7b, 0x7c, 0x3e,
  0x0b, 0xf4, 0x01, 0xbf, 0x5a, 0xfa, 0xf4, 0xbe, 0x4a, 0xfe, 0xd2, 0x3e,
  0x00, 0x00, 0x00, 0x00, 0xf2, 0xfb, 0xff, 0xff, 0x04, 0x00, 0x00, 0x00,
  0x00, 0x02, 0x00, 0x00, 0x16, 0xf9, 0x65, 0xbd, 0x3b, 0xc2, 0x3e, 0xbe,
  0xa6, 0x15, 0xff, 0xbe, 0x6c, 0x74, 0xe2, 0xbd, 0xac, 0x5e, 0x05, 0x3e,
  0x16, 0x01, 0x04, 0xbf, 0x1c, 0xa4, 0x90, 0x3e, 0xcb, 0x48, 0xbf, 0xbe,
  0x61, 0x0f, 0x42, 0xbe, 0x03, 0x4a, 0xaa, 0xbe, 0xf2, 0x90, 0x11, 0x3e,
  0xa3, 0xe8, 0x87, 0x3e, 0x2a, 0xb0, 0x96, 0x3e, 0xa2, 0x58, 0x90, 0xbe,
  0x2c, 0x53, 0xc8, 0x3e, 0x7c, 0xbe, 0xf8, 0xbc, 0x27, 0x74, 0x93, 0xbe,
  0xb5, 0x0f, 0x40, 0xbe, 0x07, 0x64, 0xb9, 0xbe, 0x78, 0x86, 0x03, 0x3f,
  0x9d, 0xcb, 0xdb, 0x3d, 0x18, 0xc5, 0x2f, 0xbe, 0xfa, 0xe2, 0xea, 0xbd,
  0x8a, 0x8f, 0xe7, 0x3e, 0xcf, 0xa8, 0x63, 0xbe, 0x70, 0x30, 0x98, 0xbc,
  0x08, 0x3c, 0xd2, 0x3d, 0x91, 0x8a, 0x8f, 0x3e, 0xce, 0x62, 0xf0, 0x3e,
  0xa1, 0x02, 0x07, 0x3f, 0xf9, 0xe1, 0xf2, 0x3e, 0x2f, 0x06, 0x40, 0x3e,
  0x93, 0x7d, 0x34, 0x3e, 0x85, 0x6d, 0x57, 0xbe, 0x64, 0x70, 0x2d, 0x3e,
  0x55, 0xc5, 0xed, 0xbd, 0x31, 0x40, 0x02, 0xbf, 0x24, 0x82, 0x06, 0xbf,
  0xaf, 0xa1, 0x41, 0x3e, 0xd0, 0x42, 0xa9, 0x3e, 0x3a, 0x99, 0xce, 0x3e,
  0x53, 0x87, 0xcb, 0xbd, 0xe9, 0x43, 0x97, 0xbb, 0x9f, 0xaf, 0x3c, 0x3e,
  0xaa, 0xf5, 0x6b, 0x3e, 0xc1, 0xb1, 0x20, 0x3e, 0x7b, 0x09, 0x07, 0x3d,
  0x88, 0x8a, 0x60, 0x3e, 0xe0, 0xb7, 0xbb, 0x3d, 0xb8, 0x0a, 0x6d, 0xbe,
  0x1c, 0x01, 0xda, 0xbe, 0xe8, 0x8c, 0xdb, 0x3e, 0xd0, 0xfb, 0x34, 0x3e,
  0x40, 0xc2, 0xcc, 0xbe, 0x30, 0x8e, 0x8a, 0x3d, 0x74, 0x0d, 0xbd, 0x3e,
  0x70, 0x49, 0x1a, 0xbe, 0x2c, 0xeb, 0x90, 0xbe, 0x8c, 0xe7, 0xd6, 0xbe,
  0x94, 0x99, 0x9e, 0xbe, 0xd0, 0x55, 0x22, 0xbe, 0x98, 0xd7, 0xa3, 0x3e,
  0xd0, 0x66, 0xc0, 0x3d, 0xac, 0x56, 0xae, 0xbe, 0xfc, 0xbb, 0xed, 0xbe,
  0xc0, 0x95, 0x9f, 0xbd, 0x88, 0x48, 0x19, 0x3e, 0x34, 0xcc, 0xfe, 0xbe,
  0x38, 0x7b, 0x32, 0xbe, 0xf4, 0xd1, 0xfa, 0x3e, 0x80, 0x9d, 0x7d, 0x3c,
  0xe0, 0xef, 0xac, 0x3d, 0xe0, 0x20, 0x5b, 0x3e, 0xf8, 0xdc, 0x28, 0xbe,
  0xd0, 0x1a, 0xae, 0xbd, 0x4c, 0xf1, 0x83, 0xbe, 0xe8, 0xb4, 0xf7, 0xbe,
  0xb0, 0x03, 0x92, 0xbd, 0xfc, 0x2e, 0xce, 0xbe, 0x80, 0xaa, 0xb9, 0xbc,
  0x5b, 0x10, 0x02, 0x3f, 0xf1, 0x50, 0xe4, 0x3d, 0xc1, 0x82, 0x9b, 0xbd,
  0xad, 0x64, 0xbc, 0xbe, 0x4f, 0xa5, 0x07, 0x3e, 0x16, 0x3d, 0x06, 0x3f,
  0xef, 0x3d, 0x7d, 0xbe, 0xed, 0xf1, 0x05, 0xbe, 0x5c, 0x08, 0x0c, 0x3f,
  0xd4, 0x3f, 0x04, 0x3e, 0x2a, 0x71, 0x1f, 0x3d, 0x4b, 0x92, 0x03, 0xbf,
  0x6c, 0xf6, 0x06, 0xbf, 0x2f, 0x20, 0xe5, 0xbe, 0x7e, 0xf5, 0x3d, 0xbe,
  0xe0, 0x62, 0x0b, 0x3f, 0x1c, 0xd0, 0x1e, 0x3e, 0x96, 0x93, 0x63, 0x3e,
  0x8e, 0xf9, 0xcb, 0x3e, 0xd4, 0x0c, 0x8b, 0x3e, 0x3f, 0xd4, 0xa4, 0xbe,
  0xba, 0xf1, 0xe2, 0xbe, 0x2d, 0x5f, 0xb7, 0xbe, 0xf0, 0x2d, 0x5c, 0x3e,
  0xdf, 0x5b, 0x6b, 0x3e, 0x46, 0xb8, 0xbf, 0xbd, 0x6f, 0xb2, 0x5c, 0xbe,
  0x6c, 0x84, 0x10, 0x3e, 0x96, 0x41, 0x07, 0x3f, 0xe1, 0xd3, 0x93, 0xbe,
  0x6e, 0x08, 0xe4, 0xbe, 0xd7, 0x19, 0xaa, 0x3d, 0x42, 0x39, 0xe7, 0xbe,
  0x4e, 0xd6, 0xdb, 0x3e, 0x0a, 0x00, 0x76, 0x3e, 0x20, 0x62, 0x8f, 0xbe,
  0xb1, 0xfa, 0xf0, 0x3e, 0x0e, 0x67, 0xf7, 0x3e, 0x3c, 0xf4, 0x3b, 0xbe,
  0x88, 0x4a, 0x26, 0x3f, 0x2e, 0xc0, 0x95, 0x3e, 0x9f, 0xc5, 0x02, 0x3f,
  0x62, 0x9a, 0x56, 0xba, 0x79, 0x65, 0x45, 0xbe, 0xd6, 0x3d, 0xfd, 0x3e,
  0xb7, 0x33, 0xa0, 0x3e, 0x08, 0x2f, 0x2e, 0x3e, 0x8b, 0x72, 0xf8, 0x3e,
  0x00, 0x00, 0x00, 0x00, 0x02, 0xfe, 0xff, 0xff, 0x04, 0x00, 0x00, 0x00,
  0x08, 0x00, 0x00, 0x00, 0x06, 0x84, 0x6b, 0x3e, 0x08, 0x84, 0x6b, 0xbe,
  0x00, 0x00, 0x00, 0x00, 0x00, 0x00, 0x00, 0x00, 0x00, 0x00, 0x00, 0x00,
  0x22, 0xfe, 0xff, 0xff, 0x04, 0x00, 0x00, 0x00, 0x40, 0x00, 0x00, 0x00,
  0x00, 0x00, 0x00, 0x00, 0x5f, 0xbe, 0xc7, 0xbd, 0x2a, 0x6d, 0x0e, 0xbe,
  0xf9, 0xc5, 0x22, 0x3e, 0xbd, 0xe9, 0x39, 0xbd, 0xdd, 0x0a, 0xb3, 0xbd,
  0x1a, 0xfe, 0xf6, 0xbd, 0x00, 0x00, 0x00, 0x00, 0x58, 0x65, 0x84, 0xbd,
  0x7e, 0xf1, 0x4e, 0xbc, 0x00, 0x00, 0x00, 0x00, 0xf0, 0xd8, 0x3c, 0xbd,
  0xa8, 0xcf, 0x94, 0x3e, 0xa9, 0xb3, 0xb3, 0x3e, 0xb0, 0x59, 0x08, 0xbd,
  0xdf, 0x96, 0xe8, 0xbd, 0x00, 0x00, 0x00, 0x00, 0x72, 0xfe, 0xff, 0xff,
  0x04, 0x00, 0x00, 0x00, 0x40, 0x00, 0x00, 0x00, 0x7e, 0x68, 0xc9, 0x3e,
  0x6a, 0x24, 0xfc, 0xbd, 0x29, 0x64, 0x02, 0xbe, 0xe4, 0xe8, 0xbd, 0xbd,
  0x70, 0x7e, 0x2e, 0x3b, 0x90, 0x17, 0x01, 0xbd, 0x00, 0x00, 0x00, 0x00,
  0x31, 0xa6, 0xdc, 0xbd, 0xb8, 0x1a, 0x7e, 0xbd, 0x97, 0x7f, 0x6e, 0x3e,
  0xc5, 0xe8, 0x25, 0xbe, 0xb9, 0x59, 0xd4, 0xbc, 0xc9, 0xca, 0x49, 0x3e,
  0xd1, 0x1c, 0x1b, 0xbe, 0x51, 0x07, 0x63, 0xbc, 0x20, 0xc4, 0xfd, 0xbc,
  0x00, 0x00, 0x00, 0x00, 0xc2, 0xfe, 0xff, 0xff, 0x04, 0x00, 0x00, 0x00,
  0x40, 0x00, 0x00, 0x00, 0x21, 0x05, 0x4a, 0x3e, 0x00, 0x00, 0x00, 0x00,
  0x00, 0x00, 0x00, 0x00, 0xaf, 0x71, 0x59, 0xbd, 0x00, 0x00, 0x00, 0x00,
  0x6e, 0xc0, 0xe4, 0xbd, 0x0c, 0xfe, 0xb7, 0x3d, 0x11, 0xa9, 0xb6, 0xbd,
  0x45, 0x1f, 0xad, 0xbd, 0x44, 0xf6, 0x8b, 0xbc, 0xc0, 0x46, 0x3b, 0x3e,
  0x92, 0x26, 0xe0, 0x3d, 0x68, 0x42, 0xf9, 0xbd, 0x82, 0xc1, 0xb5, 0xbc,
  0x00, 0x00, 0x00, 0x00, 0x18, 0x86, 0x94, 0xbd, 0x00, 0x00, 0x00, 0x00,
  0x12, 0xff, 0xff, 0xff, 0x04, 0x00, 0x00, 0x00, 0x20, 0x00, 0x00, 0x00,
  0x7e, 0x35, 0x09, 0xbd, 0x1d, 0xe1, 0x16, 0xbe, 0x8a, 0x30, 0xa1, 0x3d,
  0x00, 0x00, 0x00, 0x00, 0x00, 0x00, 0x00, 0x00, 0xd9, 0xf1, 0x5b, 0xbc,
  0x77, 0x45, 0x66, 0xbd, 0x27, 0x3c, 0xa4, 0xbd, 0x00, 0x00, 0x00, 0x00,
  0x00, 0x00, 0x00, 0x00, 0x00, 0x00, 0x00, 0x00, 0xb4, 0xf7, 0xff, 0xff,
  0x00, 0x00, 0x00, 0x00, 0x00, 0x00, 0x00, 0x00, 0x00, 0x00, 0x00, 0x00,
  0xc4, 0xf7, 0xff, 0xff, 0x00, 0x00, 0x00, 0x00, 0x00, 0x00, 0x00, 0x00,
  0x00, 0x00, 0x00, 0x00, 0x0f, 0x00, 0x00, 0x00, 0x4d, 0x4c, 0x49, 0x52,
  0x20, 0x43, 0x6f, 0x6e, 0x76, 0x65, 0x72, 0x74, 0x65, 0x64, 0x2e, 0x00,
  0x01, 0x00, 0x00, 0x00, 0x14, 0x00, 0x00, 0x00, 0x00, 0x00, 0x0e, 0x00,
  0x18, 0x00, 0x04, 0x00, 0x08, 0x00, 0x0c, 0x00, 0x10, 0x00, 0x14, 0x00,
  0x0e, 0x00, 0x00, 0x00, 0xbc, 0x01, 0x00, 0x00, 0xb0, 0x01, 0x00, 0x00,
  0xa4, 0x01, 0x00, 0x00, 0x14, 0x00, 0x00, 0x00, 0x04, 0x00, 0x00, 0x00,
  0x04, 0x00, 0x00, 0x00, 0x6d, 0x61, 0x69, 0x6e, 0x00, 0x00, 0x00, 0x00,
  0x06, 0x00, 0x00, 0x00, 0x4c, 0x01, 0x00, 0x00, 0x04, 0x01, 0x00, 0x00,
  0xbc, 0x00, 0x00, 0x00, 0x84, 0x00, 0x00, 0x00, 0x50, 0x00, 0x00, 0x00,
  0x14, 0x00, 0x00, 0x00, 0x00, 0x00, 0x0e, 0x00, 0x1a, 0x00, 0x08, 0x00,
  0x0c, 0x00, 0x10, 0x00, 0x07, 0x00, 0x14, 0x00, 0x0e, 0x00, 0x00, 0x00,
  0x00, 0x00, 0x00, 0x09, 0x01, 0x00, 0x00, 0x00, 0x24, 0x00, 0x00, 0x00,
  0x18, 0x00, 0x00, 0x00, 0x0c, 0x00, 0x00, 0x00, 0x00, 0x00, 0x06, 0x00,
  0x08, 0x00, 0x04, 0x00, 0x06, 0x00, 0x00, 0x00, 0x00, 0x00, 0x80, 0x3f,
  0x01, 0x00, 0x00, 0x00, 0x10, 0x00, 0x00, 0x00, 0x01, 0x00, 0x00, 0x00,
  0x0f, 0x00, 0x00, 0x00, 0x66, 0xff, 0xff, 0xff, 0x00, 0x00, 0x00, 0x08,
  0x18, 0x00, 0x00, 0x00, 0x0c, 0x00, 0x00, 0x00, 0x04, 0x00, 0x00, 0x00,
  0x9c, 0xf8, 0xff, 0xff, 0x01, 0x00, 0x00, 0x00, 0x0f, 0x00, 0x00, 0x00,
  0x03, 0x00, 0x00, 0x00, 0x0e, 0x00, 0x00, 0x00, 0x0a, 0x00, 0x00, 0x00,
  0x05, 0x00, 0x00, 0x00, 0x96, 0xff, 0xff, 0xff, 0x00, 0x00, 0x00, 0x08,
  0x1c, 0x00, 0x00, 0x00, 0x10, 0x00, 0x00, 0x00, 0x04, 0x00, 0x00, 0x00,
  0x42, 0xff, 0xff, 0xff, 0x00, 0x00, 0x00, 0x01, 0x01, 0x00, 0x00, 0x00,
  0x0e, 0x00, 0x00, 0x00, 0x03, 0x00, 0x00, 0x00, 0x0d, 0x00, 0x00, 0x00,
  0x09, 0x00, 0x00, 0x00, 0x04, 0x00, 0x00, 0x00, 0xca, 0xff, 0xff, 0xff,
  0x00, 0x00, 0x00, 0x08, 0x1c, 0x00, 0x00, 0x00, 0x10, 0x00, 0x00, 0x00,
  0x04, 0x00, 0x00, 0x00, 0x76, 0xff, 0xff, 0xff, 0x00, 0x00, 0x00, 0x01,
  0x01, 0x00, 0x00, 0x00, 0x0d, 0x00, 0x00, 0x00, 0x03, 0x00, 0x00, 0x00,
  0x0c, 0x00, 0x00, 0x00, 0x08, 0x00, 0x00, 0x00, 0x03, 0x00, 0x00, 0x00,
  0x00, 0x00, 0x0e, 0x00, 0x14, 0x00, 0x00, 0x00, 0x08, 0x00, 0x0c, 0x00,
  0x07, 0x00, 0x10, 0x00, 0x0e, 0x00, 0x00, 0x00, 0x00, 0x00, 0x00, 0x08,
  0x1c, 0x00, 0x00, 0x00, 0x10, 0x00, 0x00, 0x00, 0x04, 0x00, 0x00, 0x00,
  0xba, 0xff, 0xff, 0xff, 0x00, 0x00, 0x00, 0x01, 0x01, 0x00, 0x00, 0x00,
  0x0c, 0x00, 0x00, 0x00, 0x03, 0x00, 0x00, 0x00, 0x0b, 0x00, 0x00, 0x00,
  0x07, 0x00, 0x00, 0x00, 0x02, 0x00, 0x00, 0x00, 0x00, 0x00, 0x0e, 0x00,
  0x16, 0x00, 0x00, 0x00, 0x08, 0x00, 0x0c, 0x00, 0x07, 0x00, 0x10, 0x00,
  0x0e, 0x00, 0x00, 0x00, 0x00, 0x00, 0x00, 0x08, 0x24, 0x00, 0x00, 0x00,
  0x18, 0x00, 0x00, 0x00, 0x0c, 0x00, 0x00, 0x00, 0x00, 0x00, 0x06, 0x00,
  0x08, 0x00, 0x07, 0x00, 0x06, 0x00, 0x00, 0x00, 0x00, 0x00, 0x00, 0x01,
  0x01, 0x00, 0x00, 0x00, 0x0b, 0x00, 0x00, 0x00, 0x03, 0x00, 0x00, 0x00,
  0x00, 0x00, 0x00, 0x00, 0x06, 0x00, 0x00, 0x00, 0x01, 0x00, 0x00, 0x00,
  0x01, 0x00, 0x00, 0x00, 0x10, 0x00, 0x00, 0x00, 0x01, 0x00, 0x00, 0x00,
  0x00, 0x00, 0x00, 0x00, 0x11, 0x00, 0x00, 0x00, 0x18, 0x06, 0x00, 0x00,
  0xa4, 0x05, 0x00, 0x00, 0x34, 0x05, 0x00, 0x00, 0xd4, 0x04, 0x00, 0x00,
  0x74, 0x04, 0x00, 0x00, 0x14, 0x04, 0x00, 0x00, 0xc8, 0x03, 0x00, 0x00,
  0x7c, 0x03, 0x00, 0x00, 0x30, 0x03, 0x00, 0x00, 0xe4, 0x02, 0x00, 0x00,
  0x98, 0x02, 0x00, 0x00, 0x1c, 0x02, 0x00, 0x00, 0xa0, 0x01, 0x00, 0x00,
  0x24, 0x01, 0x00, 0x00, 0xa8, 0x00, 0x00, 0x00, 0x4c, 0x00, 0x00, 0x00,
  0x04, 0x00, 0x00, 0x00, 0x40, 0xfa, 0xff, 0xff, 0x34, 0x00, 0x00, 0x00,
  0x11, 0x00, 0x00, 0x00, 0x1c, 0x00, 0x00, 0x00, 0x14, 0x00, 0x00, 0x00,
  0x04, 0x00, 0x00, 0x00, 0x02, 0x00, 0x00, 0x00, 0xff, 0xff, 0xff, 0xff,
  0x02, 0x00, 0x00, 0x00, 0x2c, 0xfa, 0xff, 0xff, 0x08, 0x00, 0x00, 0x00,
  0x49, 0x64, 0x65, 0x6e, 0x74, 0x69, 0x74, 0x79, 0x00, 0x00, 0x00, 0x00,
  0x02, 0x00, 0x00, 0x00, 0x01, 0x00, 0x00, 0x00, 0x02, 0x00, 0x00, 0x00,
  0x84, 0xfa, 0xff, 0xff, 0x48, 0x00, 0x00, 0x00, 0x10, 0x00, 0x00, 0x00,
  0x1c, 0x00, 0x00, 0x00, 0x14, 0x00, 0x00, 0x00, 0x04, 0x00, 0x00, 0x00,
  0x02, 0x00, 0x00, 0x00, 0xff, 0xff, 0xff, 0xff, 0x02, 0x00, 0x00, 0x00,
  0x70, 0xfa, 0xff, 0xff, 0x1f, 0x00, 0x00, 0x00, 0x73, 0x65, 0x71, 0x75,
  0x65, 0x6e, 0x74, 0x69, 0x61, 0x6c, 0x5f, 0x34, 0x36, 0x2f, 0x64, 0x65,
  0x6e, 0x73, 0x65, 0x5f, 0x32, 0x30, 0x30, 0x2f, 0x42, 0x69, 0x61, 0x73,
  0x41, 0x64, 0x64, 0x00, 0x02, 0x00, 0x00, 0x00, 0x01, 0x00, 0x00, 0x00,
  0x02, 0x00, 0x00, 0x00, 0xdc, 0xfa, 0xff, 0xff, 0x68, 0x00, 0x00, 0x00,
  0x0f, 0x00, 0x00, 0x00, 0x1c, 0x00, 0x00, 0x00, 0x14, 0x00, 0x00, 0x00,
  0x04, 0x00, 0x00, 0x00, 0x02, 0x00, 0x00, 0x00, 0xff, 0xff, 0xff, 0xff,
  0x10, 0x00, 0x00, 0x00, 0xc8, 0xfa, 0xff, 0xff, 0x3c, 0x00, 0x00, 0x00,
  0x73, 0x65, 0x71, 0x75, 0x65, 0x6e, 0x74, 0x69, 0x61, 0x6c, 0x5f, 0x34,
  0x36, 0x2f, 0x64, 0x65, 0x6e, 0x73, 0x65, 0x5f, 0x31, 0x39, 0x39, 0x2f,
  0x52, 0x65, 0x6c, 0x75, 0x3b, 0x73, 0x65, 0x71, 0x75, 0x65, 0x6e, 0x74,
  0x69, 0x61, 0x6c, 0x5f, 0x34, 0x36, 0x2f, 0x64, 0x65, 0x6e, 0x73, 0x65,
  0x5f, 0x31, 0x39, 0x39, 0x2f, 0x42, 0x69, 0x61, 0x73, 0x41, 0x64, 0x64,
  0x00, 0x00, 0x00, 0x00, 0x02, 0x00, 0x00, 0x00, 0x01, 0x00, 0x00, 0x00,
  0x10, 0x00, 0x00, 0x00, 0x54, 0xfb, 0xff, 0xff, 0x68, 0x00, 0x00, 0x00,
  0x0e, 0x00, 0x00, 0x00, 0x1c, 0x00, 0x00, 0x00, 0x14, 0x00, 0x00, 0x00,
  0x04, 0x00, 0x00, 0x00, 0x02, 0x00, 0x00, 0x00, 0xff, 0xff, 0xff, 0xff,
  0x10, 0x00, 0x00, 0x00, 0x40, 0xfb, 0xff, 0xff, 0x3c, 0x00, 0x00, 0x00,
  0x73, 0x65, 0x71, 0x75, 0x65, 0x6e, 0x74, 0x69, 0x61, 0x6c, 0x5f, 0x34,
  0x36, 0x2f, 0x64, 0x65, 0x6e, 0x73, 0x65, 0x5f, 0x31, 0x39, 0x38, 0x2f,
  0x52, 0x65, 0x6c, 0x75, 0x3b, 0x73, 0x65, 0x71, 0x75, 0x65, 0x6e, 0x74,
  0x69, 0x61, 0x6c, 0x5f, 0x34, 0x36, 0x2f, 0x64, 0x65, 0x6e, 0x73, 0x65,
  0x5f, 0x31, 0x39, 0x38, 0x2f, 0x42, 0x69, 0x61, 0x73, 0x41, 0x64, 0x64,
  0x00, 0x00, 0x00, 0x00, 0x02, 0x00, 0x00, 0x00, 0x01, 0x00, 0x00, 0x00,
  0x10, 0x00, 0x00, 0x00, 0xcc, 0xfb, 0xff, 0xff, 0x68, 0x00, 0x00, 0x00,
  0x0d, 0x00, 0x00, 0x00, 0x1c, 0x00, 0x00, 0x00, 0x14, 0x00, 0x00, 0x00,
  0x04, 0x00, 0x00, 0x00, 0x02, 0x00, 0x00, 0x00, 0xff, 0xff, 0xff, 0xff,
  0x10, 0x00, 0x00, 0x00, 0xb8, 0xfb, 0xff, 0xff, 0x3c, 0x00, 0x00, 0x00,
  0x73, 0x65, 0x71, 0x75, 0x65, 0x6e, 0x74, 0x69, 0x61, 0x6c, 0x5f, 0x34,
  0x36, 0x2f, 0x64, 0x65, 0x6e, 0x73, 0x65, 0x5f, 0x31, 0x39, 0x37, 0x2f,
  0x52, 0x65, 0x6c, 0x75, 0x3b, 0x73, 0x65, 0x71, 0x75, 0x65, 0x6e, 0x74,
  0x69, 0x61, 0x6c, 0x5f, 0x34, 0x36, 0x2f, 0x64, 0x65, 0x6e, 0x73, 0x65,
  0x5f, 0x31, 0x39, 0x37, 0x2f, 0x42, 0x69, 0x61, 0x73, 0x41, 0x64, 0x64,
  0x00, 0x00, 0x00, 0x00, 0x02, 0x00, 0x00, 0x00, 0x01, 0x00, 0x00, 0x00,
  0x10, 0x00, 0x00, 0x00, 0x44, 0xfc, 0xff, 0xff, 0x68, 0x00, 0x00, 0x00,
  0x0c, 0x00, 0x00, 0x00, 0x1c, 0x00, 0x00, 0x00, 0x14, 0x00, 0x00, 0x00,
  0x04, 0x00, 0x00, 0x00, 0x02, 0x00, 0x00, 0x00, 0xff, 0xff, 0xff, 0xff,
  0x08, 0x00, 0x00, 0x00, 0x30, 0xfc, 0xff, 0xff, 0x3c, 0x00, 0x00, 0x00,
  0x73, 0x65, 0x71, 0x75, 0x65, 0x6e, 0x74, 0x69, 0x61, 0x6c, 0x5f, 0x34,
  0x36, 0x2f, 0x64, 0x65, 0x6e, 0x73, 0x65, 0x5f, 0x31, 0x39, 0x36, 0x2f,
  0x52, 0x65, 0x6c, 0x75, 0x3b, 0x73, 0x65, 0x71, 0x75, 0x65, 0x6e, 0x74,
  0x69, 0x61, 0x6c, 0x5f, 0x34, 0x36, 0x2f, 0x64, 0x65, 0x6e, 0x73, 0x65,
  0x5f, 0x31, 0x39, 0x36, 0x2f, 0x42, 0x69, 0x61, 0x73, 0x41, 0x64, 0x64,
  0x00, 0x00, 0x00, 0x00, 0x02, 0x00, 0x00, 0x00, 0x01, 0x00, 0x00, 0x00,
  0x08, 0x00, 0x00, 0x00, 0x26, 0xfd, 0xff, 0xff, 0x38, 0x00, 0x00, 0x00,
  0x0b, 0x00, 0x00, 0x00, 0x0c, 0x00, 0x00, 0x00, 0x04, 0x00, 0x00, 0x00,
  0x98, 0xfc, 0xff, 0xff, 0x1e, 0x00, 0x00, 0x00, 0x73, 0x65, 0x71, 0x75,
  0x65, 0x6e, 0x74, 0x69, 0x61, 0x6c, 0x5f, 0x34, 0x36, 0x2f, 0x64, 0x65,
  0x6e, 0x73, 0x65, 0x5f, 0x32, 0x30, 0x30, 0x2f, 0x4d, 0x61, 0x74, 0x4d,
  0x75, 0x6c, 0x00, 0x00, 0x02, 0x00, 0x00, 0x00, 0x02, 0x00, 0x00, 0x00,
  0x10, 0x00, 0x00, 0x00, 0x6e, 0xfd, 0xff, 0xff, 0x38, 0x00, 0x00, 0x00,
  0x0a, 0x00, 0x00, 0x00, 0x0c, 0x00, 0x00, 0x00, 0x04, 0x00, 0x00, 0x00,
  0xe0, 0xfc, 0xff, 0xff, 0x1e, 0x00, 0x00, 0x00, 0x73, 0x65, 0x71, 0x75,
  0x65, 0x6e, 0x74, 0x69, 0x61, 0x6c, 0x5f, 0x34, 0x36, 0x2f, 0x64, 0x65,
  0x6e, 0x73, 0x65, 0x5f, 0x31, 0x39, 0x39, 0x2f, 0x4d, 0x61, 0x74, 0x4d,
  0x75, 0x6c, 0x00, 0x00, 0x02, 0x00, 0x00, 0x00, 0x10, 0x00, 0x00, 0x00,
  0x10, 0x00, 0x00, 0x00, 0xb6, 0xfd, 0xff, 0xff, 0x38, 0x00, 0x00, 0x00,
  0x09, 0x00, 0x00, 0x00, 0x0c, 0x00, 0x00, 0x00, 0x04, 0x00, 0x00, 0x00,
  0x28, 0xfd, 0xff, 0xff, 0x1e, 0x00, 0x00, 0x00, 0x73, 0x65, 0x71, 0x75,
  0x65, 0x6e, 0x74, 0x69, 0x61, 0x6c, 0x5f, 0x34, 0x36, 0x2f, 0x64, 0x65,
  0x6e, 0x73, 0x65, 0x5f, 0x31, 0x39, 0x38, 0x2f, 0x4d, 0x61, 0x74, 0x4d,
  0x75, 0x6c, 0x00, 0x00, 0x02, 0x00, 0x00, 0x00, 0x10, 0x00, 0x00, 0x00,
  0x10, 0x00, 0x00, 0x00, 0xfe, 0xfd, 0xff, 0xff, 0x38, 0x00, 0x00, 0x00,
  0x08, 0x00, 0x00, 0x00, 0x0c, 0x00, 0x00, 0x00, 0x04, 0x00, 0x00, 0x00,
  0x70, 0xfd, 0xff, 0xff, 0x1e, 0x00, 0x00, 0x00, 0x73, 0x65, 0x71, 0x75,
  0x65, 0x6e, 0x74, 0x69, 0x61, 0x6c, 0x5f, 0x34, 0x36, 0x2f, 0x64, 0x65,
  0x6e, 0x73, 0x65, 0x5f, 0x31, 0x39, 0x37, 0x2f, 0x4d, 0x61, 0x74, 0x4d,
  0x75, 0x6c, 0x00, 0x00, 0x02, 0x00, 0x00, 0x00, 0x10, 0x00, 0x00, 0x00,
  0x08, 0x00, 0x00, 0x00, 0x46, 0xfe, 0xff, 0xff, 0x38, 0x00, 0x00, 0x00,
  0x07, 0x00, 0x00, 0x00, 0x0c, 0x00, 0x00, 0x00, 0x04, 0x00, 0x00, 0x00,
  0xb8, 0xfd, 0xff, 0xff, 0x1e, 0x00, 0x00, 0x00, 0x73, 0x65, 0x71, 0x75,
  0x65, 0x6e, 0x74, 0x69, 0x61, 0x6c, 0x5f, 0x34, 0x36, 0x2f, 0x64, 0x65,
  0x6e, 0x73, 0x65, 0x5f, 0x31, 0x39, 0x36, 0x2f, 0x4d, 0x61, 0x74, 0x4d,
  0x75, 0x6c, 0x00, 0x00, 0x02, 0x00, 0x00, 0x00, 0x08, 0x00, 0x00, 0x00,
  0x10, 0x00, 0x00, 0x00, 0x8e, 0xfe, 0xff, 0xff, 0x50, 0x00, 0x00, 0x00,
  0x06, 0x00, 0x00, 0x00, 0x0c, 0x00, 0x00, 0x00, 0x04, 0x00, 0x00, 0x00,
  0x00, 0xfe, 0xff, 0xff, 0x37, 0x00, 0x00, 0x00, 0x73, 0x65, 0x71, 0x75,
  0x65, 0x6e, 0x74, 0x69, 0x61, 0x6c, 0x5f, 0x34, 0x36, 0x2f, 0x64, 0x65,
  0x6e, 0x73, 0x65, 0x5f, 0x32, 0x30, 0x30, 0x2f, 0x42, 0x69, 0x61, 0x73,
  0x41, 0x64, 0x64, 0x2f, 0x52, 0x65, 0x61, 0x64, 0x56, 0x61, 0x72, 0x69,
  0x61, 0x62, 0x6c, 0x65, 0x4f, 0x70, 0x2f, 0x72, 0x65, 0x73, 0x6f, 0x75,
  0x72, 0x63, 0x65, 0x00, 0x01, 0x00, 0x00, 0x00, 0x02, 0x00, 0x00, 0x00,
  0xea, 0xfe, 0xff, 0xff, 0x50, 0x00, 0x00, 0x00, 0x05, 0x00, 0x00, 0x00,
  0x0c, 0x00, 0x00, 0x00, 0x04, 0x00, 0x00, 0x00, 0x5c, 0xfe, 0xff, 0xff,
  0x37, 0x00, 0x00, 0x00, 0x73, 0x65, 0x71, 0x75, 0x65, 0x6e, 0x74, 0x69,
  0x61, 0x6c, 0x5f, 0x34, 0x36, 0x2f, 0x64, 0x65, 0x6e, 0x73, 0x65, 0x5f,
  0x31, 0x39, 0x39, 0x2f, 0x42, 0x69, 0x61, 0x73, 0x41, 0x64, 0x64, 0x2f,
  0x52, 0x65, 0x61, 0x64, 0x56, 0x61, 0x72, 0x69, 0x61, 0x62, 0x6c, 0x65,
  0x4f, 0x70, 0x2f, 0x72, 0x65, 0x73, 0x6f, 0x75, 0x72, 0x63, 0x65, 0x00,
  0x01, 0x00, 0x00, 0x00, 0x10, 0x00, 0x00, 0x00, 0x46, 0xff, 0xff, 0xff,
  0x50, 0x00, 0x00, 0x00, 0x04, 0x00, 0x00, 0x00, 0x0c, 0x00, 0x00, 0x00,
  0x04, 0x00, 0x00, 0x00, 0xb8, 0xfe, 0xff, 0xff, 0x37, 0x00, 0x00, 0x00,
  0x73, 0x65, 0x71, 0x75, 0x65, 0x6e, 0x74, 0x69, 0x61, 0x6c, 0x5f, 0x34,
  0x36, 0x2f, 0x64, 0x65, 0x6e, 0x73, 0x65, 0x5f, 0x31, 0x39, 0x38, 0x2f,
  0x42, 0x69, 0x61, 0x73, 0x41, 0x64, 0x64, 0x2f, 0x52, 0x65, 0x61, 0x64,
  0x56, 0x61, 0x72, 0x69, 0x61, 0x62, 0x6c, 0x65, 0x4f, 0x70, 0x2f, 0x72,
  0x65, 0x73, 0x6f, 0x75, 0x72, 0x63, 0x65, 0x00, 0x01, 0x00, 0x00, 0x00,
  0x10, 0x00, 0x00, 0x00, 0xa2, 0xff, 0xff, 0xff, 0x50, 0x00, 0x00, 0x00,
  0x03, 0x00, 0x00, 0x00, 0x0c, 0x00, 0x00, 0x00, 0x04, 0x00, 0x00, 0x00,
  0x14, 0xff, 0xff, 0xff, 0x37, 0x00, 0x00, 0x00, 0x73, 0x65, 0x71, 0x75,
  0x65, 0x6e, 0x74, 0x69, 0x61, 0x6c, 0x5f, 0x34, 0x36, 0x2f, 0x64, 0x65,
  0x6e, 0x73, 0x65, 0x5f, 0x31, 0x39, 0x37, 0x2f, 0x42, 0x69, 0x61, 0x73,
  0x41, 0x64, 0x64, 0x2f, 0x52, 0x65, 0x61, 0x64, 0x56, 0x61, 0x72, 0x69,
  0x61, 0x62, 0x6c, 0x65, 0x4f, 0x70, 0x2f, 0x72, 0x65, 0x73, 0x6f, 0x75,
  0x72, 0x63, 0x65, 0x00, 0x01, 0x00, 0x00, 0x00, 0x10, 0x00, 0x00, 0x00,
  0x00, 0x00, 0x0e, 0x00, 0x14, 0x00, 0x04, 0x00, 0x00, 0x00, 0x08, 0x00,
  0x0c, 0x00, 0x10, 0x00, 0x0e, 0x00, 0x00, 0x00, 0x50, 0x00, 0x00, 0x00,
  0x02, 0x00, 0x00, 0x00, 0x0c, 0x00, 0x00, 0x00, 0x04, 0x00, 0x00, 0x00,
  0x80, 0xff, 0xff, 0xff, 0x37, 0x00, 0x00, 0x00, 0x73, 0x65, 0x71, 0x75,
  0x65, 0x6e, 0x74, 0x69, 0x61, 0x6c, 0x5f, 0x34, 0x36, 0x2f, 0x64, 0x65,
  0x6e, 0x73, 0x65, 0x5f, 0x31, 0x39, 0x36, 0x2f, 0x42, 0x69, 0x61, 0x73,
  0x41, 0x64, 0x64, 0x2f, 0x52, 0x65, 0x61, 0x64, 0x56, 0x61, 0x72, 0x69,
  0x61, 0x62, 0x6c, 0x65, 0x4f, 0x70, 0x2f, 0x72, 0x65, 0x73, 0x6f, 0x75,
  0x72, 0x63, 0x65, 0x00, 0x01, 0x00, 0x00, 0x00, 0x08, 0x00, 0x00, 0x00,
  0x14, 0x00, 0x18, 0x00, 0x04, 0x00, 0x00, 0x00, 0x08, 0x00, 0x0c, 0x00,
  0x10, 0x00, 0x00, 0x00, 0x00, 0x00, 0x14, 0x00, 0x14, 0x00, 0x00, 0x00,
  0x3c, 0x00, 0x00, 0x00, 0x01, 0x00, 0x00, 0x00, 0x20, 0x00, 0x00, 0x00,
  0x18, 0x00, 0x00, 0x00, 0x04, 0x00, 0x00, 0x00, 0x02, 0x00, 0x00, 0x00,
  0xff, 0xff, 0xff, 0xff, 0x10, 0x00, 0x00, 0x00, 0x04, 0x00, 0x04, 0x00,
  0x04, 0x00, 0x00, 0x00, 0x0f, 0x00, 0x00, 0x00, 0x64, 0x65, 0x6e, 0x73,
  0x65, 0x5f, 0x31, 0x39, 0x36, 0x5f, 0x69, 0x6e, 0x70, 0x75, 0x74, 0x00,
  0x02, 0x00, 0x00, 0x00, 0x01, 0x00, 0x00, 0x00, 0x10, 0x00, 0x00, 0x00,
  0x02, 0x00, 0x00, 0x00, 0x20, 0x00, 0x00, 0x00, 0x0c, 0x00, 0x00, 0x00,
  0x00, 0x00, 0x06, 0x00, 0x06, 0x00, 0x05, 0x00, 0x06, 0x00, 0x00, 0x00,
  0x00, 0x19, 0x0a, 0x00, 0x0c, 0x00, 0x07, 0x00, 0x00, 0x00, 0x08, 0x00,
  0x0a, 0x00, 0x00, 0x00, 0x00, 0x00, 0x00, 0x09, 0x03, 0x00, 0x00, 0x00
};
unsigned int converted_model_tflite_len = 6144;
